#version: 0.2
e n</w>
e r
i n
t h
c h
e n
e r</w>
a n
u n
t i
th e</w>
r e
s t
d i
a r
o n</w>
o n
l i
o r
e i
e s</w>
a l
r o
c h</w>
s i
i n</w>
e l
e s
i s
d er</w>
a u
an d</w>
w i
o f</w>
a t
e in
t o</w>
di e</w>
un d</w>
e d</w>
i s</w>
o m
a s</w>
in g</w>
o u
d en</w>
r a
r i
s ch
a t</w>
b e
g e
d e
a ti
a n</w>
a s
un g</w>
o r</w>
i t
u r
t en</w>
g en</w>
t e</w>
a l</w>
a b
o l
v er
m en
u s
l e
p o
t er
l e</w>
i t</w>
d er
t e
a m
p ro
v e</w>
i e</w>
e h
f ü
T h
t s</w>
a c
g e</w>
l y</w>
s p
i ch
e c
v i
z u</w>
n o
d e</w>
th at</w>
q u
ch en</w>
h i
h r
f or</w>
f f
e t
l o
v on</w>
ati on</w>
en t
t h</w>
om m
ti on</w>
s u
c on
is t</w>
w er
n e
l a
e m
f or
ar e</w>
c e</w>
fü r</w>
s e</w>
i l
z u
ro p
ein e</w>
o p
o t
u rop
m a
men t</w>
h a
g en
po s
d en
b e</w>
c i
d es</w>
g i
au f</w>
t a
b er
d a
ei n</w>
V er
m it</w>
ei t</w>
s t</w>
wi th</w>
Th e</w>
b er</w>
E urop
e m</w>
d as</w>
ch e</w>
el l
u l
ich t</w>
ati on
i m
e x
u t
di es
s er
a r</w>
un gen</w>
U n
ou r</w>
d u
c om
I n
s o</w>
r u
ti on
si on</w>
S t
c o
th is</w>
p or
f i
t er</w>
c k
li ch</w>
s h
de m</w>
a h
n en</w>
l l</w>
an d
w h
i e
a pos
& apos
i m</w>
S ie</w>
s e
l d</w>
A n
a f
wi r
a d
m o
s en</w>
a g
w or
as s</w>
n icht</w>
w ei
o u</w>
no t</w>
wer den</w>
w e</w>
u m</w>
ä n
z i
al l</w>
R e
in d</w>
t u
g h
b y</w>
un g
ha ve</w>
er e</w>
r an
s o
a p
w e
d ass</w>
at e</w>
li e
t ra
k e</w>
wi r</w>
D ie</w>
en t</w>
qu ot
p ar
g es
quot ;</w>
& quot;</w>
w hi
si ch</w>
ti m
y ou</w>
ou ld</w>
al s</w>
re s
is chen</w>
wi ll</w>
p er
b u
m en</w>
a li
w as</w>
omm is
au ch</w>
u m
a ch
al l
in g
i ch</w>
h o
whi ch</w>
ro m</w>
i r
ung s
S ch
e b
au s
d o
B e
m e
t y</w>
P ro
a ch</w>
f rom</w>
h ab
P ar
s ind</w>
t z
er s</w>
l u
t s
ch t</w>
2 0
E n
th er</w>
wir d</w>
w en
d s</w>
h al
r ä
b es
ein er</w>
ü ber</w>
l ei
h as</w>
g t</w>
ein en</w>
f in
A u
t o
ö n
p l
wi e</w>
ur e</w>
e st
sch af
ou t</w>
ab le</w>
c an</w>
in ter
u r</w>
si den
ommis sion</w>
g an
a hr
b ei
po li
s a
g u
es s</w>
ge b
s ol
st ell
ü r
for m
i li
au s</w>
on e</w>
D i
st en</w>
I n</w>
g ra
e an</w>
A r
t en
B er
te l</w>
o o
i c
i r</w>
v er</w>
et z
v or
er t</w>
ou r
e l</w>
h at</w>
an n</w>
&apos ;
t ed</w>
eh r</w>
be i</w>
o der</w>
E r
hab en</w>
com p
al so</w>
Europ ean</w>
li ch
d ur
u s</w>
s ti
i g
us t</w>
a k
e t</w>
H er
ä r
al ly</w>
i on</w>
t ri
an y</w>
er en</w>
m e</w>
A us
g r
E in
g el
w el
re c
li chen</w>
er n</w>
k ön
e u
H o
m ö
s el
s en
men ts</w>
an t</w>
a m</w>
sch en</w>
w a
&apos ;</w>
at ed</w>
au f
it y</w>
ti c
es e</w>
20 0
si e</w>
l en</w>
j e
e y</w>
or e</w>
un d
tion s</w>
l in
e p
ar k
m in
it s</w>
zu r</w>
p e
te t</w>
M it
o h
siden t</w>
d ar
st a
g ro
Un ion</w>
por t</w>
D as</w>
der n</w>
g er
du c
&apos; s</w>
gh t</w>
si on
co un
un ser
I ch</w>
at es</w>
ein em</w>
n ation
w ur
ver y</w>
A l
y st
t r
ti ve</w>
en d</w>
at en</w>
W e</w>
w ar
kön nen</w>
ü n
A b
ation s</w>
y our</w>
f t</w>
re s</w>
f re
t ung</w>
o ff
P re
er ung</w>
d ing</w>
k en</w>
o b
m er</w>
be t
is che</w>
li che</w>
M a
es s
a ge</w>
p re
F ra
V or
m ore</w>
c es</w>
bu t</w>
k eit</w>
ch n
ge h
k ing</w>
k t</w>
es t</w>
c k</w>
f ol
w ould</w>
an der
ch ti
in c
z ei
ch te</w>
v el
st r
b r
an ce</w>
as t</w>
u p</w>
ti es</w>
ar y</w>
p res
f er
p ri
s sen</w>
t ing</w>
ei r</w>
ou s</w>
v o
an n
un ter
m it
fü hr
c y</w>
ö r
v en</w>
b o
En t
Th is</w>
g er</w>
i hr
th eir</w>
be en</w>
W ir</w>
S p
s on
Europ ä
un s</w>
g n
l an
1 9
p p
p u
I t</w>
n ach</w>
dies e</w>
dur ch</w>
& #
ar i
g re
h er
eh en</w>
t ei
0 0</w>
zu m</w>
ü ber
t re
sh ould</w>
st e</w>
c omm
por t
st ri
n e</w>
n ur</w>
f ac
g h</w>
o ther</w>
k ann</w>
omm en</w>
sp ec
v or</w>
as e</w>
b le</w>
am p
g o
h in
i el
di s
m ü
b le
G es
e ar
M r</w>
K on
d o</w>
m an</w>
n eh
m p
v ol
ne u
t ro
w n</w>
h eit</w>
b en</w>
b t</w>
f en</w>
d ed</w>
a re
a d</w>
b li
st ru
D er</w>
z w
da ß</w>
si ch
Un ter
am e</w>
C ommission</w>
t el
em ber</w>
m ust</w>
dies er</w>
E s</w>
no ch</w>
p r
or d
e g
G r
er i
ac c
k s</w>
. .
t w
schaf t</w>
m u
v en
h e</w>
K ommission</w>
ei ten</w>
k on
s om
i c</w>
P rä
us s</w>
f u
en ce</w>
s ec
w ä
a v
ü ck
b en
b i
C o
m on
f e
s yst
l ä
&# 9
tim e</w>
th ere</w>
m ark
v es</w>
t ä
th ey</w>
i st
as s
i h
st at
n ah
G e
li ke</w>
is e</w>
In ter
m an
gra m
sch e</w>
g ung</w>
da y</w>
or t</w>
l t</w>
E U</w>
ne w</w>
ci al</w>
k l
al e</w>
e ff
on ly</w>
ges ch
ut z
no w</w>
l ung</w>
wur de</w>
ab er</w>
Ho tel</w>
j ec
ol o
m i
mü ssen</w>
wi ck
ab out</w>
s ein</w>
ge m
ar d</w>
t ran
I h
F or
wor k</w>
wen n</w>
m s</w>
s ehr</w>
pro duc
poli ti
Her r</w>
in n
en s
ing s</w>
im mer</w>
al en</w>
men t
f o
ri t
c re
h e
or i
l and</w>
.. .</w>
el t</w>
ü tz
Mit g
P o
fi r
S ta
c u
le g
Pre sident</w>
eh r
y s</w>
en s</w>
d ung</w>
Par la
c ri
li a
an t
w s</w>
th ese</w>
al le</w>
tim m
el y</w>
de t</w>
qu i
Au f
in e</w>
wa y</w>
sp e
er n
ein es</w>
Z u
b a
for e</w>
au se</w>
t n
con c
th o
f ahr
D e
la r</w>
dies em</w>
ber ei
ch an
ac e</w>
m ehr</w>
ra l</w>
us am
Mitg lie
su p
p le
I hr
on der
wi th
wh o</w>
wei ter
r on
v ed</w>
po si
i f</w>
de vel
th er
an s</w>
nation al</w>
J ahr
w ar</w>
di es</w>
pro vi
is ch
re d</w>
k ommen</w>
M en
ser vi
U m
re gi
oo d</w>
f ra
mö g
n o</w>
ili ty</w>
or s</w>
in form
op le</w>
im port
lia ment</w>
S o
re ich
ati ve</w>
Europä ischen</w>
a ff
s etz
Re gi
m any</w>
f un
sol l
d es
vi e
Par liament</w>
t ur
mo st</w>
neh men</w>
ne t</w>
re g
st eh
d r
i d</w>
k te</w>
en den</w>
h ei
wer e</w>
lie ß
B es
con t
h and
su b
w is
g lei
B u
sti tu
mö chte</w>
com e</w>
h er</w>
g es</w>
pe ople</w>
Europ e</w>
us e</w>
un der
in to</w>
ar bei
pro c
op er
on g</w>
si ble</w>
h el
sch ie
lo c
ation en</w>
su ch</w>
m y</w>
g keit</w>
e urop
re l
on om
f e</w>
d a</w>
em p
el le</w>
re ch
ä l
l au
wh at</w>
re i
st än
at ing</w>
v ing</w>
St ates</w>
do ch</w>
devel op
e ment</w>
di ff
l as
M ember</w>
ro u
C h
re port</w>
ti gen</w>
b is</w>
fu l</w>
tri es</w>
te chn
hal ten</w>
st ütz
m er
usam men
wi chti
a st
t es</w>
C on
vi el
pu bli
in i
p h
stell en</w>
li c
ti g</w>
ne ed</w>
d am
Mitglie d
Co un
M e
en n
spec i
coun tries</w>
c le
r e</w>
c tion</w>
z en</w>
m at
ri e
l ar
G er
p a
o m</w>
gi bt</w>
europ ä
c ent
th an</w>
un ter</w>
c ause</w>
a il
po in
i l</w>
s er</w>
tion en</w>
ag a
inc lu
ci l</w>
it e</w>
wh en</w>
an k</w>
som e</w>
Ü ber
B ei
w oh
ihr e</w>
geb en</w>
b ie
n i
1 0</w>
b re
ag re
Coun cil</w>
etz t</w>
un i
dies es</w>
il li
vo m</w>
e -
in u
M o
wel l</w>
st and
b ar
di rec
st e
u p
import ant</w>
sch ließ
ma ke</w>
Prä sident</w>
en de</w>
ho tel</w>
si gn
si s</w>
ec onom
gro ß
ge t</w>
l at
k ti
ap p
ell en</w>
den en</w>
Mitglied sta
s ch</w>
th em</w>
stell t</w>
so wie</w>
el s</w>
sh o
or y</w>
per i
bes onder
h ere</w>
we en</w>
tic al</w>
hal b</w>
zw ischen</w>
pro pos
f ul
C omm
gh ts</w>
fir st</w>
b eit</w>
de ut
el e
ac k
hi er</w>
for m</w>
syst em</w>
ta ke</w>
th ing</w>
bet ween</w>
h is</w>
pro ble
c ol
w er</w>
z e</w>
Ent wick
l es</w>
am en</w>
ein g</w>
O r
for der
t or</w>
ch ten</w>
i en</w>
st ar
c c
ta in
ra ti
en g
be cause</w>
el l</w>
r ü
m uss</w>
p en
ex c
Ber icht</w>
s ame</w>
Q u
ali ty</w>
L i
Ar bei
ver n
j o
tä t</w>
t schaf
Parla ment</w>
b in
er g
o ver</w>
unser e</w>
b ar</w>
k om
wh ere</w>
n ec
ac k</w>
ie l</w>
fin an
h en</w>
inform ation</w>
sp on
S u
Mitgliedsta aten</w>
Ih nen</w>
i de
sion s</w>
Ber ei
re as
ma de</w>
n at
w ür
k o
k eine</w>
m is
l er</w>
ge gen</w>
P er
c ul
wi e
H au
en n</w>
ä ch
olo g
w al
eb en</w>
e d
c an
pro gram
ear s</w>
f t
i es</w>
sup port</w>
fi c
at eg
j ust</w>
t ure</w>
or der</w>
in di
19 9
y p
i ge</w>
y ing</w>
o k
x t</w>
ä u
is su
In form
y e
J ah
z ah
on s</w>
we ver</w>
st s</w>
fin den</w>
p la
or gan
s es</w>
ö ff
S e
L än
z eu
Pro ble
E x
S er
s at
F in
p f
ander en</w>
ha d</w>
I f</w>
K o
p ec
r is
eu te</w>
r en
y ears</w>
wir k
it ä
ä tz
f a
re spon
st er</w>
n um
re ad
th rou
en ti
Z usammen
s m
steh t</w>
s k
s hi
l än
aus ge
Pro du
tho se</w>
tra g</w>
me di
f ten</w>
si ve</w>
o s</w>
ri ght</w>
3 ;</w>
&#9 3;</w>
1 ;</w>
&#9 1;</w>
tw o</w>
si te</w>
M on
wei se</w>
k tion</w>
Europ a</w>
Vor sch
wä hr
le tz
lich keit</w>
Ges ch
k eiten</w>
poli cy</w>
l l
b eing</w>
ap pro
un ity</w>
ta in</w>
er te</w>
ti ge</w>
s c
f ri
W ir
n ung</w>
d ann</w>
un den</w>
tion al</w>
con si
par tic
e fore</w>
W enn</w>
dies en</w>
om s</w>
r au
be lie
nah men</w>
sch ei
tr y</w>
E U
er k
d at
lo w
n ach
be g
an ge
c lo
f all
W ei
v al
ma y</w>
ß er
B et
an g</w>
dam it</w>
lin e</w>
m al</w>
le v
ent ly</w>
diff er
de ci
Di ese</w>
c ar
te e</w>
g ab
st ehen</w>
g ood</w>
si tu
N o
g a
lo w</w>
pos sible</w>
M ar
wur den</w>
em s</w>
se e</w>
ro om</w>
N ach
pl ace</w>
I m</w>
u res</w>
Fra u</w>
ich t
gem ein
c al</w>
g s</w>
us ed</w>
en d
vie w</w>
h um
de mo
c our
f f</w>
c er
s ed</w>
c ur
ge ment</w>
wor ld</w>
T e
e ven</w>
B ür
la ge</w>
ter s</w>
are a</w>
res s</w>
qu es
s ur
at er</w>
st an
1 2
w är
T ei
hab e</w>
Ihr e</w>
il l
un kt</w>
N e
lo b
lo o
unser er</w>
d an
ac t</w>
n is
K ol
u n</w>
as ed</w>
ar ly</w>
ou gh</w>
st and</w>
st ra
st au
je doch</w>
par t</w>
Europä ische</w>
u tion</w>
t lich</w>
ff en</w>
pro te
in v
F re
woh l</w>
jec t</w>
ho w</w>
f ur
u ri
G eb
re su
Y ou</w>
comp le
t ungen</w>
G em
G ro
th en</w>
i ce</w>
ä h
ä f
bes ch
ye ar</w>
s ei
Po li
ä hr
k e
le gen</w>
publi c</w>
gen er
Her r
Z eit</w>
ch ar
b il
in s</w>
f as
mark et</w>
S ich
h ol
G en
U S
in k</w>
g ar
eff ec
es ti
Th ere</w>
son dern</w>
Ma ß
Ä n
i er
en en</w>
t ly</w>
br au
us in
d ra
sp iel
w n
A s</w>
throu gh</w>
M in
h ar
R o
c or
in du
af ter</w>
men d
st er
gen en</w>
ou se</w>
S yst
T a
a ir
F ü
gel e
in ce</w>
Än der
o wn</w>
i gen</w>
s eine</w>
neu e</w>
el n</w>
econom ic</w>
de b
ci p
et y</w>
c ould</w>
de l</w>
A m
stän di
w ant</w>
poli tical</w>
s or
h ö
fahr en</w>
hi gh
ther efore</w>
h eute</w>
k un
ö ß
Men schen</w>
i a</w>
a u</w>
av ail
bes ser
p ra
unter stütz
tran sp
be d
ommis sion
europä ischen</w>
et t
ri ghts</w>
berei ts</w>
develop ment</w>
D at
M ark
g ent
with in</w>
read y</w>
W e
in gen</w>
t lichen</w>
geh en</w>
si b
ö s
ge gen
in st</w>
F or</w>
mit tel
tran s
p s</w>
Pro gram
stau ran
st o
stru c
t able</w>
f am
Gr und
on en</w>
m ich</w>
B il
ri ch
soll te</w>
Sich er
B o
geh t</w>
w ol
sch n
si de</w>
p er</w>
ic al</w>
un der</w>
st u
aga inst</w>
sel b
en z</w>
c li
al le
las sen</w>
pr in
K om
ou s
R ei
n t</w>
es en</w>
0 00</w>
per son
en th
en z
be k
in s
bo th</w>
R at</w>
poin t</w>
ö l
do es</w>
Jah r</w>
g ri
Gem ein
ti k
M ö
mu ch</w>
val u
ab ility</w>
vi ron
ß en</w>
S it
L ei
we i</w>
l ü
el d</w>
führ t</w>
ch er</w>
k tion
bu il
ber s</w>
th re
inter national</w>
politi k</w>
t om
n et
2 0</w>
oh ne</w>
an ti
soll ten</w>
neu en</w>
me as
ander e</w>
amp ;</w>
& amp;</w>
ver schie
e ti
se t</w>
k t
g lich</w>
ihr er</w>
W or
F ran
lie gt</w>
v ari
servi ce</w>
s h</w>
ou t
coun try</w>
f ind</w>
Fra ge</w>
ne e
h än
dur ch
ge w
ein f
Z ei
lich er</w>
cont inu
öff ent
er ten</w>
Bes ch
c t</w>
be wer
go vern
it tee</w>
Jahr en</w>
Ber ich
cle ar</w>
Re ch
Entwick lung</w>
with out</w>
gan z</w>
qu ality</w>
p i
ma chen</w>
oper ation</w>
qu e</w>
c ap
num ber</w>
en ts</w>
ar ds</w>
st or
b ur
g o</w>
ant wor
ment al</w>
5 0</w>
in stitu
wir tschaf
reich en</w>
avail able</w>
st re
P ri
z wei</w>
la g</w>
ro oms</w>
ti al</w>
bie tet</w>
all en</w>
ag es</w>
l ast</w>
f le
servi ces</w>
gre at</w>
al o
f est
sti ll</w>
f il
stell ung</w>
Fin an
L u
l and
d ri
inter nation
so ci
i z
re qui
fac t</w>
R i
it ed</w>
f ut
el ec
T ra
wa ys</w>
k ten</w>
St r
in nen</w>
v e
k no
sa y</w>
s ehen</w>
z us
differ ent</w>
t liche</w>
führ en</w>
fre e</w>
posi tion</w>
T o
n te</w>
L o
so cial</w>
ter n</w>
de m
d re
ol d</w>
lei st
conc ern
besonder e</w>
d ru
belie ve</w>
om e</w>
l ungen</w>
k re
D ur
W eb
chan ge</w>
der s</w>
B ar
Mö g
s on</w>
Th at</w>
z ur
as si
in st
u lar</w>
en viron
sich er
si cht</w>
ter n
con su
cur r
at te</w>
Di es
k es</w>
al ready</w>
c ed</w>
ent sp
b el
b usin
est s</w>
cour se</w>
viel e</w>
sat z</w>
al t</w>
M it</w>
ul ation</w>
f ast</w>
3 0</w>
ru pp
fin det</w>
Sta d
h ä
E in</w>
sel f</w>
fut ure</w>
k now</w>
te m
fi ed</w>
pres ent
z wei
h op
emp lo
D es
d y</w>
to o</w>
f tw
cu st
be fore</w>
i ci
da zu</w>
b ri
con di
ck en</w>
can not</w>
ftw are</w>
th ink</w>
l ess</w>
in ten
j etzt</w>
l ungs
olo gi
vi du
e f
m ar
eb en
tu ral</w>
e v
wei l</w>
Unter nehmen</w>
pri v
wä h
z ent
T er
is ti
g lob
ut es</w>
D a
ali si
Inform ationen</w>
produc ts</w>
in te
c ase</w>
s y
den n</w>
lev el</w>
au th
Maß nahmen</w>
R ah
n er</w>
C ommission
shi p</w>
c ity</w>
M i
b oo
con tro
b al
gr öß
s af
en st
l ed</w>
la gen</w>
L age</w>
ra p
ti z
k ur
ent wick
kl är
z eit</w>
wie der</w>
ep t</w>
m ei
t t
dar auf</w>
dat a</w>
ar beit</w>
k omm
gen ommen</w>
e ver
T re
D o
proc ess</w>
Berei ch</w>
amp le</w>
ge stellt</w>
ein ige</w>
it al</w>
h in</w>
K in
H in
t al
on d</w>
pu t</w>
som e
ma in</w>
da für</w>
nah me</w>
gan g</w>
T ran
N or
zi eh
at s
to day</w>
ac ti
Th em
situ ation</w>
ex peri
m m
l a</w>
uri ty</w>
s ing</w>
sch en
wen di
D is
o ver
t rä
C om
f er</w>
tr au
im ple
sa gen</w>
fall s</w>
s am
M an
so zi
g n</w>
l er
ful ly</w>
ali tät</w>
B a
im pro
at ely</w>
Ser vi
se ar
w o</w>
off ers</w>
r y</w>
hum an</w>
su cc
al ten</w>
t schaft</w>
indi vidu
mög lich</w>
ges am
i g</w>
re spec
em bers</w>
b in</w>
t yp
s s</w>
hei ts
e ts</w>
A d
W elt</w>
sch on</w>
p ur
H and
Bu t</w>
Commission er</w>
tra gen</w>
m ir</w>
p rä
sp ra
ommis s
ma cht</w>
ad v
w in
issu e</w>
W i
deb ate</w>
itä t</w>
Aus sch
S o</w>
erg y</w>
Ho wever</w>
St and
200 9</w>
C hin
is m</w>
Di es</w>
bu d
selb st</w>
s einer</w>
k ed</w>
glei ch
c ra
G u
isch er</w>
a b</w>
Herr n</w>
D em
t ors</w>
st är
z el
f äl
ma j
k an
no v
S a
da m</w>
K ommiss
co m</w>
b it
lu g
t sch
ach ie
b ro
ques tion</w>
vi el</w>
o b</w>
St ra
propos al</w>
dis c
y ment</w>
on -
a gement</w>
res ol
gen d</w>
R us
is l
Ar beit</w>
finan cial</w>
dur ing</w>
ab li
app lic
vel y</w>
ver fü
in ing</w>
cust om
st en
nec ess
m eine</w>
wol len</w>
alle m</w>
bes t</w>
d el
ver k
ih r</w>
A ll</w>
ge t
Ein e</w>
ex ample</w>
i er</w>
Me di
pro f
ihr en</w>
me ans</w>
O ur</w>
unser en</w>
hi gh</w>
Arbei ts
si mp
wor den</w>
n or
fi c</w>
sm all</w>
ch il
n is</w>
S ei
kun ft</w>
hel p</w>
gu t</w>
leg al</w>
es sen
sa id</w>
ta ken</w>
ad di
e very</w>
k er</w>
n ing</w>
si gn</w>
or en</w>
H ot
min ist
ti g
tra di
ad op
te xt</w>
a de</w>
I s
wür de</w>
proble m</w>
y -
ur o</w>
Per son
is h</w>
m ul
pro du
ten s</w>
acc ess</w>
t sp
gen den</w>
or ity</w>
timm ung</w>
is ch</w>
ci tiz
V ol
Fü r</w>
Ver ein
th ough</w>
ac tion</w>
Hau sh
s ince</w>
zei ch
si c</w>
de u
g ed</w>
1 5</w>
L and</w>
S te
meas ures</w>
at e
de fin
F un
b ased</w>
ah l</w>
ver si
partic ular</w>
Jahr e</w>
e ach</w>
L and
R es
Rech ts
ation s
inclu ding</w>
c all
L ös
n am
P al
F ir
1 0
m or
ili t
v ot
z un
t -
gra tion</w>
off er</w>
W ie</w>
re qu
c l
ili ties</w>
et was</w>
are as</w>
comm on</w>
par tn
agre ement</w>
b an
t ru
gi ve</w>
f eh
Z immer</w>
setz ung</w>
k ün
br ingen</w>
l ong</w>
o l</w>
W el
Comm ittee</w>
b ack</w>
busin ess</w>
en ces</w>
n un</w>
ti n</w>
lich keiten</w>
bie ten</w>
m a</w>
necess ary</w>
Unter stütz
ä hi
Änder ungs
ig er</w>
EU -
al y
B eh
Pro je
ti k</w>
x i
ens ure</w>
Un d</w>
ar t
en e</w>
al th</w>
ac coun
war d</w>
lin ie</w>
Län der</w>
sch ri
sear ch</w>
N at
bes timm
citiz ens</w>
is ed</w>
ut z</w>
provi de</w>
col le
V i
spe zi
än der
ü h
u al</w>
z ü
pres ent</w>
J u
ür lich</w>
et er</w>
ti c</w>
E -
di re
ne xt</w>
währ end</w>
ti eren</w>
Ver fü
sp re
R icht
er gi
s si
s s
d ings</w>
fe w</w>
re m</w>
d ungen</w>
s ure</w>
er halten</w>
di g
ever y
er fol
vi si
ins besondere</w>
be gr
rec ei
im m
en ergy</w>
por ts</w>
ge st
g ar</w>
A ut
ann t</w>
ges etzt</w>
Um wel
in de
war en</w>
k tionen</w>
olog y</w>
ord nung</w>
sib ility</w>
M u
1 8
Te chn
se l</w>
k tu
U r
as k</w>
ci es</w>
vo te</w>
est abli
stauran t</w>
ie t</w>
ol e</w>
L a
us ing</w>
geh ör
geb o
ar o
no t
it h</w>
proble ms</w>
str y</w>
i ly</w>
de li
w ach
syst ems</w>
ch es</w>
loc ated</w>
g s
p unkt</w>
aga in</w>
M r
lar ge</w>
Be d
n ten</w>
o d</w>
Unterstütz ung</w>
illi on</w>
w es
G re
e k</w>
O n</w>
d ate</w>
H il
p as
Zusammen arbeit</w>
l on
fur ther</w>
12 4
nis se</w>
us e
men te</w>
1 2</w>
f ar</w>
Men schen
g ing</w>
e qui
arbei ten</w>
Rah men</w>
sta y</w>
es sen</w>
ar t</w>
h an
li cht</w>
. com</w>
t ungs
op port
aff en</w>
v öl
ul arly</w>
whi le</w>
inc reas
sec urity</w>
all er</w>
De ut
C ent
sch ein
tro l
s se</w>
ä m
j u
k a</w>
au tom
Län dern</w>
124 ;</w>
&# 124;</w>
wh e
R u
sh all</w>
Parla ments</w>
hi l
fo re
a z
lo s</w>
vol l
er ungs
ho wever</w>
b lei
ver wen
s eit</w>
f l
wh y</w>
m ä
ul es</w>
a mend
low ing</w>
op p
Vorsch lag</w>
P or
i eren</w>
al er</w>
W in
si chti
lei ch
k ey</w>
St u
h eiten</w>
se qu
Inter net</w>
in vol
leg isl
ob jec
co operation</w>
gi ven</w>
pra c
comp an
comp eti
vie ws</w>
utz en</w>
setz en</w>
ass ung</w>
D eb
thre e</w>
wichti g</w>
L e
K li
consi der
be steht</w>
f an
F all</w>
ag t</w>
Ar t</w>
E u
lo ssen</w>
B el
sol l</w>
de st
tu n</w>
om en</w>
w o
z ep
Tei l</w>
hop e</w>
D ar
ie der
ör der
hi stor
w an
wis sen</w>
c ou
i zi
Bür ger</w>
politi schen</w>
er sten</w>
zu g</w>
mo der
et ing</w>
Proble m</w>
Fra gen</w>
ri chti
f te</w>
Th ey</w>
20 10</w>
bei m</w>
ß t</w>
T o</w>
ex p
da ys</w>
di d</w>
a k</w>
Ver k
ti ce</w>
O n
ven tion</w>
g lau
comp any</w>
con nec
nee ds</w>
d ge</w>
z o
dar f</w>
F ol
un de</w>
d ly</w>
führ ung</w>
G ar
war ds</w>
ti ert</w>
An wen
d lich</w>
ha pp
Be i</w>
is h
ous ly</w>
la w</w>
f ung</w>
Hau p
ti l</w>
sch er</w>
wär e</w>
gr und</w>
li fe</w>
at s</w>
at t
ter stat
R ol
ein mal</w>
sa m</w>
at ten
B en
al ways</w>
si tz
ge ther</w>
gab e</w>
L eb
T ur
h ear
einf ach</w>
Prä siden
m ehr
por te
as es</w>
ini ti
wor king</w>
gro up</w>
i ert</w>
Z iel</w>
en nen</w>
- S
Sei te</w>
gu ar
prote ction</w>
gen de</w>
ad d
W hat</w>
M ein
W ith</w>
be tri
for t
y er</w>
bet ter</w>
Z iel
do wn</w>
our s</w>
Syst em</w>
En g
A t</w>
mu ß</w>
pl an
tre ten</w>
Gro up</w>
li ght</w>
wel che</w>
Kol legen</w>
pr ü
es sion
Or gan
c a</w>
gen heit</w>
N amen</w>
ma in
ge führt</w>
ra tion</w>
t z</w>
Pro z
Ent schei
str ateg
st ance</w>
sol u
ett bewer
mat eri
der en</w>
r än
is ation</w>
c a
is m
Comm unity</w>
h au
ä mp
D aten</w>
cul tural</w>
Re cht</w>
pl ac
1 .
da bei</w>
r in
W ar
sp iel</w>
W as</w>
Par tn
An d</w>
Be deut
produc tion</w>
sp ar
ess es</w>
l us
dre i</w>
n ess</w>
p ack
G i
200 8</w>
re chte</w>
hal f</w>
m es</w>
se ver
H ouse</w>
Un i
b au
Verfü gung</w>
V iel
re co
u e</w>
gro w
den ti
gab en</w>
letz ten</w>
zei gt</w>
par ti
ap pe
ß e</w>
we b
O p
groß e</w>
Un ited</w>
ch o
l s</w>
tei l</w>
si a</w>
Wir tschaf
Haush al
K ar
li ed</w>
A f
fer ence</w>
program me</w>
schaf ten</w>
tim es</w>
s einen</w>
f lo
ing ungen</w>
F am
indu stri
ic ul
le a
k ri
g ern</w>
ru m</w>
Th ese</w>
Bedeut ung</w>
Sit u
ma king</w>
im p
our ces</w>
y ed</w>
r ise</w>
str eng
de ta
E ben
d -
Er geb
W oh
d ent
e p</w>
disc us
M illi
or ts</w>
ent fer
dr en</w>
diff icul
resu l
th ir
m ati
ex tre
ori ties</w>
Chin a</w>
p t</w>
Sicher heit</w>
In stitu
groß en</w>
s ing
P u
Fra ktion</w>
hän gi
to gether</w>
En ergi
ff e</w>
Au f</w>
Stad t</w>
ü ck</w>
Mög lichkeit</w>
partic ularly</w>
inn er
ful l</w>
I N
S ec
aro und</w>
ation al</w>
rap porte
W hen</w>
th em
not wendi
L an
Ih r</w>
zur ück
f ec
es se</w>
go ing</w>
l ab
Berich terstat
regi on
E r</w>
curr ent</w>
w w
G o
in es</w>
Au ch</w>
th e
en jo
hand elt</w>
wei ter</w>
den t</w>
re al</w>
k m</w>
ta li
0 0
h r</w>
loc ation</w>
ba sis</w>
l ing</w>
e i</w>
ter ms</w>
Sp iel
er forder
en zen</w>
whe ther</w>
Mr s</w>
speci al</w>
for t</w>
cer tain</w>
t t</w>
op en</w>
1 1</w>
A ber</w>
comm it
issu es</w>
un ic
s tim
w are</w>
O ff
j a</w>
au ßer
G ä
r or
B i
er mög
resu lt</w>
da her</w>
n äch
O b
pl at
rü h
t on</w>
ab o
K re
ein zi
an other</w>
W er
con tri
s ha
be come</w>
tra de</w>
or ig
Them a</w>
condi tions</w>
Proble me</w>
pf lich
loo k</w>
st ä
ff t</w>
US A</w>
T ex
f ähi
ti gt</w>
K ri
i ma
l en
su pp
B r
dar über</w>
Sta aten</w>
ex pres
C O
t te</w>
f ar
man agement</w>
ser v
d lichen</w>
Finan z
po wer</w>
in e
N ach</w>
gre i
L is
th s</w>
ge f
F o
W o
go ti
F ahr
da von</w>
i ti
p age</w>
x im
h and</w>
F rau
glei ch</w>
tra c
m b
cent re</w>
Gesch äf
ser i
schließ lich</w>
gen e</w>
F lug
m et
st af
ent schei
ran ge</w>
Mit tel
k ein</w>
chil dren</w>
E R
su m
weiter e</w>
ge ord
at y</w>
S ol
guar an
ex ten
st ate</w>
Al s</w>
m einer</w>
Gen er
compan ies</w>
wor k
g ress</w>
es pec
S k
Ihr er</w>
Wei se</w>
contro l</w>
Kommiss ar</w>
vari ous</w>
all es</w>
d one</w>
at or</w>
we gen</w>
fi zi
com ing</w>
su chen</w>
ut er</w>
so wohl</w>
li n</w>
w eit</w>
sec tor</w>
mat ter</w>
er reichen</w>
staf f</w>
wei sen</w>
clo se</w>
des sen</w>
so li
200 0</w>
c el
wh ole</w>
ur y</w>
sel ves</w>
f av
ment ation</w>
i fic
ul tu
an zu
espec i
unterstütz en</w>
re ally</w>
ex ist
ell ent</w>
d ou
L ie
ro le</w>
kön nte</w>
s amen</w>
ch en
regi on</w>
ec k</w>
E le
Ar tik
In du
at h</w>
H e
Richt linie</w>
wirk lich</w>
ell schaft</w>
ord in
be l</w>
1 00</w>
ver b
d i</w>
Di enst
v is
bli ck</w>
nat ürlich</w>
komm t</w>
k ra
besonder s</w>
R om
do m</w>
w omen</w>
sec ond</w>
lie gen</w>
rit te</w>
respec t</w>
speci fic</w>
entsp rech
h ang</w>
all er
Z ent
gele gt</w>
indu stry</w>
com es</w>
w ahr
o gra
ig n</w>
ak tu
wis h</w>
especi ally</w>
bud get</w>
P lat
Regi erung</w>
z er
Poli tik</w>
al es</w>
t an
le ase</w>
h ör
in stru
a gen
v al</w>
Wirtschaf ts
tei l
accoun t</w>
Zu kunft</w>
he alth</w>
a si
establi sh
w ater</w>
ne goti
Servi ce</w>
Fam ili
A T
ver sch
di stri
in a</w>
sa ge</w>
ch t
experi ence</w>
er ing</w>
e ven
en ter
verschie denen</w>
tur n</w>
Bei spiel</w>
un ser</w>
ing t</w>
t ot
G ra
inv est
I ra
lo s
ar ch
be findet</w>
mö chten</w>
ih nen</w>
finan zi
spre chen</w>
b or
inner halb</w>
do cu
in nov
200 7</w>
In v
bur g</w>
mo dern</w>
r a</w>
l uss</w>
W ettbewer
En de</w>
f y</w>
po se</w>
loc al</w>
in t</w>
gr und
ism us</w>
K unden</w>
Min ist
be au
ei genen</w>
ab hängi
li g
de sign
priv ate</w>
inc re
ou th</w>
ak ti
s timmung</w>
L in
E uro</w>
are d</w>
ne ten</w>
acc ep
resol ution</w>
op en
J e
fü l
bre ak
re search</w>
N utz
Eu ro
z ed</w>
ti gung</w>
i si
R ich
T i
ab ly</w>
ich te</w>
d ür
h atte</w>
rapporte ur</w>
ir e</w>
o th
le ben</w>
viel en</w>
B al
re duc
mer k
autom ati
W ähr
qu ali
G rupp
wi de</w>
prof ession
Rol le</w>
n al</w>
d ungs
emplo yment</w>
R ück
For sch
spra che</w>
continu e</w>
ra cht</w>
Gr ün
lan gu
en cy</w>
zah l
s ön
We g</w>
wn lo
em e</w>
entfer nt</w>
C ar
her vor
EU R</w>
k rati
an s
in tro
timm t</w>
reg ard</w>
k u
gegen über</w>
c ally</w>
so ftware</w>
Ger man</w>
b lo
ge währ
europä ische</w>
Leb ens
ge l</w>
B ri
vi sion</w>
Ihr en</w>
reg ul
J un
U S</w>
fac e</w>
me work</w>
ab ili
Re gel
A t
fe at
sever al</w>
Frau en</w>
su ff
zw ar</w>
a ir</w>
ei cht</w>
Haup t
A fri
2 5</w>
maj or</w>
internation alen</w>
sel ec
zi ehen</w>
direc tive</w>
a -
B an
some thing</w>
A N
K un
f el
b s
it self</w>
um fas
n ame</w>
ti ves</w>
es sion</w>
star t</w>
re li
exc ellent</w>
at ten</w>
mä ß
y o
ver sion</w>
Al le</w>
e di
Ver brau
z usammen
ter m</w>
kom men
I m
ex pec
vi l
d u</w>
f lu
ell er</w>
en ten</w>
transp ort</w>
gu e</w>
4 0</w>
U N
f all</w>
Mein ung</w>
ein zel
r ules</w>
h ot
dire kt</w>
dru ck</w>
adv an
jec ts</w>
de c
Indu stri
ati ven</w>
An t
H ier</w>
lich es</w>
F rei
P ra
ö h
ol s</w>
il s</w>
är e</w>
politi sche</w>
on ds</w>
ta king</w>
A R
and s</w>
s ation</w>
D u
gener al</w>
ein zu
S y
il t</w>
us er</w>
ah n
o ften</w>
f ron
sing le</w>
Hot els</w>
f ood</w>
wel come</w>
si dent
ati ves</w>
pro ject</w>
con tain
ac i
E C
nation alen</w>
sich tlich</w>
gent le
U m</w>
fo und</w>
cre ate</w>
conc lu
Ma dam</w>
cri sis</w>
bu tion</w>
Situ ation</w>
ben ef
m illion</w>
Ges und
In di
Artik el</w>
vi a</w>
ß en
a way</w>
thir d</w>
en te</w>
v ement</w>
Geschäf ts
bre it
govern ment</w>
er st</w>
den ce</w>
gentle men</w>
E mp
sub ject</w>
B au
U hr</w>
me tho
b l
Ta g</w>
di o</w>
mul ti
ck s</w>
Dem ok
le ast</w>
call ed</w>
environ ment</w>
b is
glob al</w>
Ent schließ
op tim
st ed</w>
itä ten</w>
mon ey</w>
F u
o -
b ut
le t</w>
fol lowing</w>
N eu
dr ück
an y
w a</w>
dan ken</w>
Sp ra
eh men</w>
fra ge</w>
n ei
agre e</w>
2 .
person al</w>
Ger many</w>
Ab geord
er ste</w>
lä ge</w>
er ungen</w>
Tre aty</w>
F isch
li tt
or ding</w>
m ers</w>
n on-
di sp
r ate</w>
fic ation</w>
N o</w>
ges agt</w>
to wards</w>
i k</w>
Lös ung</w>
Zusammen hang</w>
deci sion</w>
verschie den
w ri
Un ser
ti schen</w>
schaf ts
Program m</w>
parti cip
Z wei
eff ici
li g</w>
fi eld</w>
1 5
th ank</w>
c ing</w>
t ten</w>
c ro
gr ün
H ei
1 6
a in</w>
Ste u
B oo
on ce</w>
wie der
t ation</w>
T ag
r o</w>
for ward</w>
st ei
W est
cul ture</w>
el s
reco gn
&apos; t</w>
1 3</w>
Präsiden tin</w>
m el
par t
o c
th ings</w>
ac tu
at er
ad ing</w>
institu tions</w>
aus sch
o ff</w>
Entwick lungs
tr on
ta ge</w>
li st</w>
re present
ver besser
on line</w>
acti vi
m ot
litt le</w>
in ed</w>
e as
ch er
Dies es</w>
rit ten</w>
ver s</w>
unser em</w>
Ver antwor
lan g</w>
comm unic
begr ü
n a
an der</w>
kti v
H e</w>
Sp an
auf en</w>
stat t</w>
w le
li gen</w>
ter min
J an
to wn</w>
stand ards</w>
lo t</w>
ti gkeit</w>
Des halb</w>
Mit tel</w>
be deu
I tali
wor ks</w>
un til</w>
Hil fe</w>
s ci
e ments</w>
incre ase</w>
er a</w>
200 6</w>
as ser
B .</w>
de f
bit te</w>
bei den</w>
qu ite</w>
o un
opport unity</w>
a id</w>
ver s
oo l</w>
kno wn</w>
t ar
custom ers</w>
produc t</w>
g än
en der</w>
z immer</w>
rit t</w>
posi tive</w>
Ch ar
ger e
w ün
1 7
on es</w>
H ar
I S
h under
tei lung</w>
k tur
individu al</w>
b ung</w>
li ck</w>
d on</w>
li es</w>
an aly
an im
K ur
M ehr
d ort</w>
R au
Dat en
re icht</w>
re cht</w>
g sten</w>
siden cy</w>
er zi
Deut sch
N ot
P i
man u
gu te</w>
on n
Am eri
tu res</w>
land s</w>
vol l</w>
gesch lossen</w>
le ar
Produ kte</w>
t our
sp ä
an trag</w>
o d
res ources</w>
lä u
M embers</w>
er war
si schen</w>
provi ded</w>
prin cip
dar an</w>
ger ich
tei len</w>
pl es</w>
öffent lichen</w>
appro ach</w>
mo sp
techn ology</w>
sp r
pla y</w>
St ru
Str ateg
amend ments</w>
Dienst leist
wor t</w>
ba u</w>
auf ge
ant rä
unter schie
s ätz
ein ge
c all</w>
P ol
g ilt</w>
g l
wen iger</w>
er h
sion en</w>
lan g
Regi on</w>
ag o</w>
b ili
p hi
E S
re ali
per form
E N
ra ther</w>
bar en</w>
hi m</w>
n ich
19 8
c tions</w>
So zi
m ilit
o cc
ge wi
Ne w</w>
Demok rati
do ws</w>
pri ce</w>
fra gen</w>
e qu
propos als</w>
activi ties</w>
up s</w>
F il
fi le</w>
sign ific
po ten
for table</w>
in ion</w>
zei tig</w>
re com
ück sichti
Sch utz</w>
H aus</w>
S pe
st ing</w>
lei sten</w>
je der</w>
grow th</w>
d liche</w>
per sön
ges ehen</w>
h t</w>
P la
Gr und</w>
k ung</w>
tic s</w>
b zw
fam ily</w>
ag ri
In iti
f ang</w>
con fi
bzw .</w>
y et</w>
fra mework</w>
forder ungen</w>
transp ar
effec tive</w>
Sch ul
u te</w>
berei ch</w>
b ed</w>
sol ution</w>
T V</w>
buil ding</w>
poin ts</w>
al low</w>
e duc
j en
li eren</w>
E N</w>
valu e</w>
st off
de sign</w>
So ftware</w>
po p
ach t</w>
saf ety</w>
R a
requi re
G leich
pro per
appro pri
h ouse</w>
hin aus</w>
inclu de</w>
peri od</w>
äm lich</w>
ma ch
d om
S ep
adop ted</w>
K ü
i denti
inter est</w>
ck t</w>
ge macht</w>
St ate</w>
Er fahr
P ak
g in
F rüh
A n</w>
fre i
geb racht</w>
n ämlich</w>
zah l</w>
ha ving</w>
orig in
h ome</w>
Sicher heits
S ü
Dies er</w>
legisl ation</w>
te te</w>
1 4</w>
all en
F e
Haushal ts
m om
Ver hand
to p</w>
du e</w>
pro gress</w>
Unser e</w>
völ k
Eben e</w>
k tor</w>
In stru
. .</w>
ad s</w>
brau chen</w>
tion ed</w>
ell eicht</w>
S el
mi ght</w>
Wor ld</w>
eben falls</w>
fle xi
Z w
fo c
vi ol
ho li
is se</w>
e ver</w>
re gel
i an</w>
h y
aus zu
bin dung</w>
fav our</w>
Aus sprache</w>
ah r</w>
rati c</w>
4 -
form s</w>
gu i
zei gen</w>
t a</w>
pre v
reas on</w>
co sts</w>
si tes</w>
m embers</w>
ständi g</w>
1 .</w>
F rie
di en
Th er
op inion</w>
zei chn
D ec
p ic
L eben</w>
f -
so gar</w>
Milli onen</w>
po ol</w>
st ory</w>
for ce</w>
ein igen</w>
äch lich</w>
D ok
No v
al tung</w>
ate gi
in dem</w>
wes ent
ri cht</w>
glau be</w>
de al</w>
unterstütz t</w>
C or
c ame</w>
P unkt</w>
A S
difficul t</w>
o se</w>
N i
web site</w>
ap art
alisi erung</w>
ktu r</w>
la dies</w>
mit tel</w>
P f
dür fen</w>
concern ed</w>
Web site</w>
c ted</w>
min utes</w>
ann ten</w>
si eh
s weise</w>
n u
sich er</w>
Dur ch
Ab stimmung</w>
ges t</w>
mo d
fun da
cont act</w>
M at
C an
per fec
A ir
cra cy</w>
R ates</w>
respon sibility</w>
v ity</w>
Zei t
Person en</w>
w ell
G ol
hal t</w>
or d</w>
as sen</w>
wor ds</w>
Af ter</w>
k ol
sup por
beau ti
Kin der</w>
end ly</w>
ad t</w>
applic ation</w>
an st
ma kes</w>
li sh</w>
hal te</w>
arbei tet</w>
Ge gen
2 4</w>
ori es</w>
ques tions</w>
z ö
tei le</w>
z ung</w>
resul ts</w>
da r</w>
st ens</w>
demo krati
tem ber</w>
pro z
kün f
b ank</w>
p at
st y
er weise</w>
sch i
provi des</w>
p ol
be half</w>
pro jects</w>
comple te</w>
w ing</w>
O ne</w>
z a</w>
etz en</w>
et wa</w>
lu b</w>
p ass
ar s</w>
ih n</w>
dar in</w>
am ong</w>
in o</w>
hel p
pro chen</w>
und ing</w>
m ember</w>
Is ra
1 8</w>
en ds</w>
beg inn
gro und</w>
Ben utz
is es</w>
Bes u
exc lu
er klär
Sep tember</w>
gr at
atten tion</w>
Pri v
econom y</w>
pl an</w>
p rec
import ance</w>
proc e
Lei st
wor d</w>
le ft</w>
ges timmt</w>
re du
ne te</w>
gro ups</w>
f li
Besch äf
Qu alität</w>
vot ed</w>
ge geben</w>
am oun
k ind</w>
cer tain
on a</w>
us ses</w>
g -
ü l
re it
ed ure</w>
enjo y</w>
usam men</w>
I C
Europ as</w>
oth ers</w>
betri fft</w>
st ation</w>
addi tion</w>
eas y</w>
der zeit</w>
un ver
Com p
re la
sp i
reg ar
ih m</w>
abo ve</w>
N ä
sho w</w>
D a</w>
m ing</w>
cou ra
l ö
sch affen</w>
simp ly</w>
Z us
Wei ter
Sch i
e th
fre und
Jan u
k einen</w>
poli cies</w>
Gemein schaft</w>
F ar
For m</w>
Inter national</w>
all gem
in -
6 0</w>
sol len</w>
stauran ts</w>
Deutsch land</w>
kom ple
D ru
pro mo
h on
Änderungs anträ
T at
u ral</w>
um s</w>
te x
po wer
char ac
environ mental</w>
f rie
zus ätz
gre ater</w>
cre di
ei g
W h
geb ung</w>
ger ade</w>
gen d
K ap
intro duc
organ is
For tsch
Re chte</w>
ben ö
Z ah
Re staurant</w>
G el
alo g</w>
Er fol
W is
weiter hin</w>
bo dy</w>
fre e
tra v
k ar
sh ort</w>
b on</w>
1 6</w>
gen au</w>
1 4
k lar</w>
utz t</w>
den ken</w>
M or
K ra
ar ti
princip le</w>
nich ts</w>
ro ad</w>
mit ted</w>
to ber</w>
air s</w>
requi red</w>
je den</w>
me chan
olog ie</w>
m ate</w>
soci ety</w>
Dok u
d y
K omm
break fast</w>
H a
mark t</w>
strateg y</w>
si ert</w>
c op
c ratic</w>
c o</w>
ou ght</w>
E R</w>
extre m
inter est
bei spiel
mei sten</w>
A C
200 5</w>
äch st</w>
direc tly</w>
ci r
li ve</w>
s einem</w>
pr o</w>
B em
un kte</w>
ad minist
ide al</w>
An gebo
le t
e li
di c
wir tschaft</w>
M är
I I</w>
chan ges</w>
respon sible</w>
tra ining</w>
ko sten
tion s
ver stän
mit t
z eh
C hi
b s</w>
M al
gehör t</w>
wichti ge</w>
sp ru
Verein ig
cont ent</w>
Bür ger
ste p</w>
sol che</w>
b are</w>
tra g
versi ty</w>
ma ß
200 4</w>
auth orities</w>
mo un
ro w</w>
k ämp
zu stellen</w>
j us
succ ess
pro mis
cle arly</w>
imm t</w>
co ver
des halb</w>
Wir tschaft</w>
Su b
beauti ful</w>
W il
Be zug</w>
zeich net</w>
k us
y ers</w>
C ol
A L
I T
fü r
lo ws</w>
wirtschaf tlichen</w>
sa che</w>
K an
f ern</w>
loo king</w>
ih rem</w>
c al
ak zep
sch wi
ktion s
achie ve</w>
n utzen</w>
sen d</w>
m em
ch s</w>
Zu gang</w>
- B
p tion</w>
essen tial</w>
e asi
P lease</w>
p an
uni ties</w>
D ank</w>
inst all
aff ec
c at
F i
trol le</w>
b ility</w>
F eh
W ach
techn ical</w>
S eiten</w>
5 -
ran k
on g
se a</w>
d d
M inu
pp ed</w>
tn is</w>
add ress</w>
seri ous</w>
neh mer</w>
ho ch
ho ffe</w>
bes ser</w>
Go vern
li ber
An sicht</w>
kom p
K l
su sta
tei lt</w>
z usammen</w>
bedeu tet</w>
zü glich</w>
as pec
schn ell</w>
wür den</w>
Um setzung</w>
tri tt</w>
Or t</w>
Ges etz
sh e</w>
Ver besser
cri min
ic a</w>
ni ght</w>
propos ed</w>
s po
vor gesch
me eting</w>
K amp
Kol leg
h en
deut lich</w>
manu fac
Gro ß
Menschen rechte</w>
1 3
S al
200 1</w>
P e
Ber lin</w>
Ver trag</w>
Be zieh
mo ve</w>
al ong</w>
h u
nee ded</w>
D ah
200 3</w>
R O
o wn
s wi
und ed</w>
fam ili
bet re
Kli ma
setz t</w>
se i</w>
b ra
re ly</w>
sen den</w>
ac ro
H ol
fac ilities</w>
näch sten</w>
a th
Jahr hunder
en ough</w>
t in
F örder
ch allen
o k</w>
curr ently</w>
Ko sten</w>
Ver fahren</w>
hum an
k enn
her r
nat ural</w>
Strateg ie</w>
re fer
ologi cal</w>
be sten</w>
struc ture</w>
z äh
T ür
D rit
br ing</w>
m ind</w>
con f
gem ä
c are</w>
bu s</w>
Au s</w>
Mu si
auf grund</w>
fe el</w>
c s</w>
trä ge</w>
Be völk
y a</w>
pos ed</w>
low ed</w>
tic le</w>
s et
s an
hal tung</w>
d au
inter nal</w>
re ach
stan den</w>
am eri
D en
lin es</w>
Win dows</w>
com fortable</w>
C as
stand ard</w>
er neu
inde pen
wer de</w>
Verantwor tung</w>
re st</w>
notwendi g</w>
ci vi
rec ent</w>
stand ing</w>
Vorsch läge</w>
invol ved</w>
ein ander</w>
am bi
S in
mon ths</w>
car ri
ne g
reg ulation</w>
fü h
Rich tung</w>
regi ons</w>
Arbei t
stru ction</w>
sta at
imple mentation</w>
ple ase</w>
extrem ely</w>
Sozi al
aller dings</w>
J o
Ziel e</w>
us es</w>
un a</w>
solu tions</w>
ver ein
Ges ellschaft</w>
lon ger</w>
B ro
Dah er</w>
S or
grei fen</w>
ges prochen</w>
ei ther</w>
hä lt</w>
wer t</w>
ne l</w>
par ties</w>
f ris
n ed</w>
ris k</w>
spe ak
erfol gre
A p
wirk ungen</w>
Mark t</w>
ac tive</w>
Ver sion</w>
c ar</w>
sch t</w>
s ab
mo di
wle dge</w>
V on</w>
inter ests</w>
require ments</w>
hear t</w>
F est
aff ung</w>
te mp
Z i
F ern
g ran
ma il</w>
Umwel t
fre u
k o</w>
Anwen dung</w>
0 .
Wel t
Bed ingungen</w>
I T</w>
fri endly</w>
mon it
gemein samen</w>
ber ücksichti
Al l
W ah
te ten</w>
Er weiter
D E</w>
an a</w>
L a</w>
c ases</w>
sch ö
nat ure</w>
A spe
E i
ass er</w>
r .</w>
op s</w>
gu ests</w>
develop ed</w>
ach ten</w>
imple men
Nä he</w>
blei ben</w>
inn en
p ast</w>
our ce</w>
se par
lan ge</w>
competi tion</w>
Mit arbei
l te</w>
i tion</w>
verwen det</w>
we der</w>
eff orts</w>
Di rec
f is
rau m</w>
D am
In n
v a</w>
um e</w>
st et</w>
li mit
P -
I de
Nov ember</w>
oo ds</w>
Grund lage</w>
gra m</w>
o p</w>
J ap
ic ro
zent r
beispiel sweise</w>
them selves</w>
de pen
H an
An gele
even ts</w>
appropri ate</w>
bek annt</w>
be tra
rich tung</w>
ig ung</w>
B re
Arbei tsp
vi ous</w>
c aus
t est</w>
langu age</w>
je wei
z es</w>
P a
n immt</w>
ing ly</w>
gen u
re staurant</w>
demo cracy</w>
ab les</w>
ur en</w>
ti sche</w>
sei ts</w>
Geb iet</w>
schri ft
e k
ke ep</w>
l an</w>
Dur ch</w>
Inter esse</w>
mb H</w>
free dom</w>
Wach st
ter ror
man ag
200 2</w>
direc t</w>
consi der</w>
In te
re -
Rei he</w>
sozi alen</w>
si tion</w>
et te</w>
mark ets</w>
negoti ations</w>
er reicht</w>
er le
Mög lichkeiten</w>
fü n
ec k
be w
Demokrati e</w>
cent ury</w>
Ih rem</w>
Au ßen
se en</w>
ne ar</w>
re lev
zo gen</w>
w and
visi t</w>
demo cratic</w>
schein t</w>
yo ung</w>
te am</w>
t or
A pri
Deb atte</w>
at ory</w>
st adt</w>
an ks</w>
fort un
ad a</w>
pre p
ant ly</w>
E l
str ong</w>
cent ral</w>
d ro
s -
off en
ber u
vi elleicht</w>
pres s</w>
ser ve</w>
sp or
Sel b
ma xim
up on</w>
Kom p
vi er</w>
sp ace</w>
com bin
net work</w>
Er klär
sp ort</w>
v o</w>
b ark
kl einen</w>
pe ace</w>
D an
ar ri
Inv esti
sch ön
ver fol
st eu
B ra
ig n
Ver wal
ac tions</w>
et c</w>
V ide
Herr en</w>
ge ts</w>
st ly</w>
K enn
fun ds</w>
alo gue</w>
forder t</w>
am m
Institu tionen</w>
ne ver</w>
har mon
G mbH</w>
ari an</w>
N etz
sp rä
do wnlo
requ est</w>
Ab kommen</w>
glei chen</w>
region al</w>
M an</w>
ri ch</w>
all s</w>
cor rec
ber eit</w>
fer enz</w>
bi g</w>
Früh st
h äl
c en</w>
hel d</w>
Tei l
F rom</w>
Re chn
an ts</w>
ges etz
impro ve</w>
ic s</w>
St ell
Apri l</w>
l ack</w>
Ö ff
er ed</w>
f our</w>
Berichterstat ter</w>
pri ces</w>
ger ä
de mon
K ön
su cht</w>
kön nten</w>
f ail
St re
s eh
t ory</w>
T ro
materi al</w>
Au ßer
gemein same</w>
r ing
lo se</w>
funda mental</w>
kon kre
Beh ör
dr in
fun ktion
steh enden</w>
su g
wen ig</w>
ri chten</w>
organ iz
develop ing</w>
Dis kus
C our
lä tz
Fisch er
A m</w>
19 7
er fül
ün sti
te m</w>
ta g</w>
8 0</w>
pa y</w>
verschieden e</w>
erforder lich</w>
B it
con ven
addi tional</w>
educ ation</w>
ver antwor
Inter net
re form</w>
hi story</w>
verfü gt</w>
S ti
mittel n</w>
tru e</w>
T ri
P rin
Aus wirkungen</w>
S an
Pre sidency</w>
ev ent</w>
a gi
Mo d
eff izi
o ft</w>
every thing</w>
Hin blick</w>
Ge f
ac comm
reich e</w>
actu ally</w>
gel ei
ver fahren</w>
min im
al tern
b ack
g rupp
ab led</w>
acc ept</w>
plat z</w>
ment ary</w>
Ab sch
im medi
hö ch
unter nehmen</w>
C u
par ts</w>
ehr s
cli mate</w>
cent er</w>
proc edure</w>
b our
lin ks</w>
W ieder
ru hi
en coura
än dern</w>
Verhand lungen</w>
Rus sia</w>
rei ben</w>
so on</w>
den ke</w>
typ e</w>
effec t</w>
20 0</w>
Pu bli
arbei tung</w>
ex per
R at
A s
el li
Kon ta
hel fen</w>
entwick elt</w>
c la
isch es</w>
men tioned</w>
tre at
ermög licht</w>
be ach</w>
stell ungen</w>
hi er
F äl
Regi onen</w>
under stand</w>
cre ated</w>
re ma
stat tet</w>
L A
Di en
c am
su per
com b
ch e
p ment</w>
t ats
vi de
Her aus
st ates</w>
ru n</w>
c ard</w>
Dienstleist ungen</w>
spiel en</w>
me et</w>
per son</w>
i erung</w>
sur ro
be finden</w>
gh out</w>
stat t
ati s
situ ated</w>
ex am
Program me</w>
recei ve</w>
at ors</w>
rel ated</w>
Änderungsanträ ge</w>
inclu ded</w>
sh are</w>
schn it
äu ßer
D amen</w>
ap er</w>
199 9</w>
ent er</w>
co st</w>
use um</w>
s st</w>
de termin
k or
a im
F l
Minu ten</w>
it ali
A mer
am es</w>
susta in
uni k
wis sen
er hö
1 7</w>
design ed</w>
d on
fall en</w>
einzel nen</w>
th us</w>
Ho w</w>
Außer dem</w>
mis sion</w>
jen igen</w>
ch ed</w>
Tat sache</w>
Änderungs antrag</w>
le ad</w>
ha ps</w>
in en</w>
er seits</w>
T ele
au t</w>
ob s</w>
vi ce</w>
Off ice</w>
m al
ta x
B innen
schließ en</w>
Ver tre
ide a</w>
al most</w>
A gen
dar um</w>
ish ing</w>
li ving</w>
Finan zi
Ho ch
ei en</w>
bil dung</w>
initi ative</w>
Gesch ichte</w>
gesam ten</w>
li k
fil es</w>
A ff
fa ir</w>
3 .
wi ll
bo ard</w>
vi c
Do ch</w>
ear ly</w>
di gen</w>
Ver tra
wri ting</w>
ist an</w>
Ein zel
h atten</w>
us ers</w>
a il</w>
lo g
po st
out side</w>
succ ess</w>
F ren
5 00</w>
er wäh
c are
Z u</w>
änder t</w>
län dern</w>
work ers</w>
re fle
acc ording</w>
P lan
k s
an gem
sich ts</w>
k er
In st
Sch ritt</w>
lin ien</w>
der ung</w>
lä ssi
Ar ch
Por tu
guaran tee</w>
inv esti
a ware</w>
des cri
Fran ce</w>
ff e
w .
ta x</w>
sch ul
maj ority</w>
inte gr
lat er</w>
ur ing</w>
wi l
k ing
t ou
L on
e ch
ta kes</w>
tot al</w>
ber g</w>
emp ha
h ard</w>
certain ly</w>
R E
Mitglie der</w>
gen ie
uni que</w>
Woh n
ei gent
en ing</w>
Kolleg innen</w>
A G</w>
K at
do ing</w>
Berei chen</w>
re ich</w>
h or
z .
ri st
fore ign</w>
a vo
an o</w>
amoun t</w>
ari a</w>
stan ces</w>
g lichen</w>
colle ag
el ess</w>
comm er
be zieh
Ver wen
m ed</w>
ver ur
j e</w>
H af
boo k</w>
connec tion</w>
Li ber
co ver</w>
gri ff</w>
h ours</w>
s atis
zi ert</w>
m il
as soci
tw eit</w>
a den</w>
exist ing</w>
er st
f al
tel y</w>
feat ures</w>
program mes</w>
f ör
ste ad</w>
communic ation</w>
eben so</w>
r ates</w>
zun ehmen</w>
weiter en</w>
D -
re ach</w>
W asser
vor zu
concern s</w>
Pro to
ell ing</w>
ser ved</w>
D el
ep tion</w>
co ordin
h of</w>
con sequ
Entschei dung</w>
Ergeb nis</w>
F ur
T our
je dem</w>
b an</w>
or ing</w>
throu ghout</w>
Abgeord neten</w>
g te</w>
I M
ww w.
wel t
h eu
S an</w>
Ant wort</w>
we ek</w>
sam keit</w>
in ge</w>
qui ck
lich erweise</w>
vor sch
ati sti
li ert</w>
fin al</w>
con text</w>
P at
invest ment</w>
ac y</w>
G ele
schri ften</w>
u ally</w>
app ly</w>
si erung</w>
mu sic</w>
P an
Th e
comm ittee</w>
Par k</w>
men d</w>
signific ant</w>
hä tte</w>
gegen wär
li gh
internation ale</w>
f lä
ck ing</w>
Fren ch</w>
richti g</w>
c amp
K ir
agre ements</w>
si an</w>
indi c
M is
pro gram</w>
a de
H ö
tä ts
it ing</w>
rel ations</w>
wichti gen</w>
Bezieh ungen</w>
pra kti
M as
str ategi
ba th
ch oo
D ol
M et
w ahl</w>
F er
co de</w>
wei ß</w>
M ob
gleich zeitig</w>
for dern</w>
deci sions</w>
Ver pflich
c e
A ktiv
M y</w>
to ok</w>
bark eit</w>
fron t</w>
Vereinig ten</w>
S at
s ent</w>
reas ons</w>
K or
B ank</w>
tern al</w>
p e</w>
Ver ordnung</w>
fähi gkeit</w>
B y</w>
kon nte</w>
acro ss</w>
a y</w>
Ho st
vel s</w>
c y
Bevölk erung</w>
for men</w>
di st
z e
concern ing</w>
C hr
al though</w>
ä lt</w>
ele gan
ah n</w>
r un
on i
Ameri can</w>
Auf gabe</w>
imp act</w>
Govern ment</w>
Grupp e</w>
K rise</w>
wel tweit</w>
ph ot
f ran
Tag es
ga b</w>
blei bt</w>
St at
Zent rum</w>
Ri si
Au stri
s mo
un ds</w>
wer k</w>
k ultu
tu al</w>
di o
is en</w>
ra ce</w>
B ar</w>
rich tungen</w>
be kommen</w>
o w</w>
l ten</w>
Par is</w>
speci ali
ä d
B lick</w>
Un ser</w>
ra ch
da p
O R
accomm od
enth alten</w>
Fü hr
me t</w>
ing -
z. B.</w>
z en
prü fen</w>
d or
lu x
perfec t</w>
Aus druck</w>
s em
comple tely</w>
k li
m einen</w>
ul ate</w>
Entschließ ung</w>
gemein sam</w>
lä sst</w>
W al
sta ge</w>
g le</w>
conf lic
Sch wi
equi pped</w>
g ten</w>
mom ent</w>
Förder ung</w>
Ur lau
ür z
sei te</w>
län der</w>
reli gi
tre ffen</w>
ple as
z ation</w>
re stri
lo k
en or
cap ital</w>
entschei den
neh men
tr a</w>
gerich tet</w>
program m</w>
Erfol g</w>
S i
s m</w>
lu s</w>
Bit te</w>
ba sic</w>
Z um</w>
sident schaft</w>
N et
timm ungen</w>
z one</w>
je de</w>
en lar
d est</w>
F ot
A D
er lau
er -
vol le</w>
kno wledge</w>
Kon trolle</w>
g ei
re ad</w>
at trac
j obs</w>
P h
inte gri
no thing</w>
consu l
Ver bindung</w>
b ein
le ading</w>
kl eine</w>
in ation</w>
er sch
c ru
tim men</w>
un abhängi
su ch
ati v</w>
w under
mo bili
ander er</w>
gr enz
m ut
lan gen</w>
is ing</w>
Bar cel
ti vely</w>
St abili
g res
si tz</w>
origin al</w>
par ty</w>
ex pen
G eld</w>
pop ulation</w>
gan gen</w>
Behör den</w>
fam ous</w>
Au ff
fi gu
er inn
erg ie</w>
inter net</w>
prac tice</w>
ei gen
1 9</w>
ne w
profession al</w>
objec tives</w>
al lows</w>
re main</w>
gar anti
f s
s sel
m ise</w>
pack age</w>
m als</w>
agri cultural</w>
th ern</w>
G eh
si ze</w>
Erweiter ung</w>
hei ßt</w>
verstän dlich</w>
L et</w>
m as
Forsch ung</w>
S eit</w>
par k</w>
Ein satz</w>
si di
t ent</w>
rech ts
sm us</w>
Plat z</w>
ill a</w>
fi ve</w>
Tur key</w>
gef ähr
partn er</w>
ck e</w>
Dam it</w>
wal k</w>
Sch la
Cour t</w>
vi r
m es
tradi tional</w>
erk enn
Isra el</w>
stim men</w>
be h
A cc
con tra
ver bin
ob lig
ei ch
pr ise</w>
inclu des</w>
proc ess
bed ingungen</w>
medi a</w>
Rus s
k it
äu fi
e chti
Partn er
regar ding</w>
establish ed</w>
ab zu
Lis bon</w>
u es</w>
ie ten</w>
h om
Ver f
unser es</w>
comm unity</w>
über zeu
le gi
st ep
is on</w>
S ince</w>
fortun ately</w>
custom er</w>
gehör en</w>
partn ers</w>
de si
do or</w>
gan genen</w>
wirtschaf tliche</w>
ke i</w>
Inform ation</w>
en -
so ft</w>
ver hin
ger ne</w>
devel op</w>
applic ations</w>
sch utz
Bei trag</w>
ameri kan
Eng lish</w>
si t
fun den</w>
it able</w>
con fir
ni ce</w>
z z
sh ed</w>
Steu er
gen t</w>
sh or
t op
we b</w>
än de</w>
cho ice</w>
A c
Sch lus
ter ran
gemä ß</w>
ra ble</w>
e y
conc ern</w>
pl ann
valu es</w>
sieh t</w>
Tür kei</w>
ba si
re views</w>
w at
Pro f
an z</w>
fi ght</w>
2 1</w>
t ol
perform ance</w>
saf e</w>
inte gration</w>
Lis sab
quick ly</w>
Nutz ung</w>
g ame</w>
tion ing</w>
buil t</w>
ul tur
st a</w>
objec tive</w>
Lös ungen</w>
c as
s ou
recei ved</w>
contain s</w>
ar d
re ports</w>
eb ru
Pre is</w>
Fin ally</w>
n it
guaran te
w ise</w>
si sche</w>
nach hal
enth ält</w>
M al</w>
L inu
hand eln</w>
A mend
pre ci
be züglich</w>
a im</w>
Proje kt</w>
Not wendi
men ten</w>
b it</w>
Verbrau cher</w>
O c
con stitu
Aussch uss</w>
mehr ere</w>
l d
benef it</w>
Minist er</w>
ch eck</w>
O ber
syst em
sor gen</w>
äh ri
F eri
we ch
equi pment</w>
sch le
be deut
mar k</w>
m y
ab solu
H ere</w>
sto p</w>
r us
S T
bal d</w>
l y
per at
je des</w>
A k
Wettbewer bs
E S</w>
Sta ats
disp la
la den</w>
simp le</w>
re f
pur ch
hin sichtlich</w>
sti c</w>
schwi eri
Jah res</w>
b ad</w>
schließ end</w>
s ett
sen se</w>
con struction</w>
Verbesser ung</w>
Auf enth
sch es</w>
ges p
sicher heit</w>
pro mise</w>
ne u</w>
gen au
mo del</w>
enti re</w>
ermög lichen</w>
b a</w>
neh m
re mo
E- Ma
s ag
Lu x
ur ch</w>
7 0</w>
achie ved</w>
Li ste</w>
F ebru
Am ster
holi day</w>
Aussch usses</w>
treat ment</w>
ec e</w>
ri ften</w>
B us
el en</w>
vor schriften</w>
cle an</w>
Energi e
den ts</w>
res se</w>
ver ti
milit ary</w>
ha f
gesam t</w>
t le</w>
I S</w>
K a
bet ei
gu est</w>
Gä ste
S h
poten tial</w>
2 2</w>
e uro</w>
C re
dem and</w>
Ge wal
ati c</w>
Qu ali
am s</w>
con grat
Mark t
g oods</w>
sty le</w>
c le</w>
di alogue</w>
S en
un ge</w>
u ß</w>
M ot
x ed</w>
Wis sen
B ur
2 3
le h
erh eb
Tex t</w>
Nat ur
z er</w>
en ed</w>
s cre
K oh
st ar</w>
G lob
prev ent</w>
di gung</w>
wichti gsten</w>
Ergeb nisse</w>
Stru ktur
j ähri
f rü
Bu ch
Sch affung</w>
k ei
at mosp
in tel
g t
V en
bes u
Partn er</w>
se ems</w>
in flu
Hot el
ü hr
clo sed</w>
Inform ations
F lü
C a
d aten</w>
p ite</w>
f est</w>
f ru
limit ed</w>
consu mers</w>
R ec
Ver anst
hot els</w>
T O</w>
ter rit
A pp
Ther efore</w>
D V
H i
ven ess</w>
amend ment</w>
A part
Spe zi
ver pflich
hau p
al -
In nov
opp el
vi ously</w>
foc us</w>
c ell
st elle</w>
m m</w>
fre i</w>
manufac tur
inde ed</w>
v eh
Gele genheit</w>
Lon don</w>
ci ples</w>
no te</w>
Au g
zah len</w>
re turn</w>
ig keiten</w>
human it
l ück
gan ze</w>
wei s</w>
Dar über</w>
stell er</w>
m us
ach es</w>
Bet ri
ali sation</w>
Verwen dung</w>
we st
zur ück</w>
schrift lich</w>
li er</w>
V or</w>
wo bei</w>
Sch wei
le vels</w>
gan zen</w>
arch it
sci enti
T ä
M ul
för dern</w>
verbesser n</w>
C H
high -
an gen
auf zu
2 7</w>
suff ici
agre ed</w>
U kra
ans wer</w>
an ischen</w>
völ lig</w>
success ful</w>
F ri
ständi gen</w>
K am
Kon z
verfü gen</w>
So li
3 0
Ch an
d ates</w>
Pri or
ima ge</w>
c ateg
verwen den</w>
flo or</w>
me an</w>
Aff airs</w>
W hi
tem por
Ges am
tra ff
Ein k
as ked</w>
M il
ad ded</w>
sen de</w>
e ks</w>
Änder ungen</w>
king .com</w>
M E
an ten</w>
increas ed</w>
an te</w>
en able</w>
Mat eri
relev ant</w>
ti sh</w>
dis ku
vel op
em is
carri ed</w>
ei gene</w>
U p
be stehen</w>
Notwendi gkeit</w>
ch em
K rank
jo b</w>
oo m</w>
vor han
grund le
9 0</w>
posi ti
S ome</w>
r und</w>
g ol
H am
Arbeitsp lätz
ultu r</w>
verfü g
Selb st
sustain able</w>
er y</w>
sub mitted</w>
maß nahmen</w>
b order</w>
present ed</w>
är en</w>
Gemein schafts
ele k
sozi ale</w>
ne ben</w>
ac ity</w>
every one</w>
sho wn</w>
entwick eln</w>
ür f
mat ters</w>
ti ger</w>
S ie
ver stär
groß er</w>
prin ciples</w>
su l
ph y
po pu
W ort</w>
sion s
tradi tion
h äre</w>
Zeit punkt</w>
dd le</w>
ent lich</w>
f onds</w>
bu te</w>
m einem</w>
n s</w>
Angebo t</w>
govern ments</w>
2 -
comp uter</w>
Them en</w>
Wo che</w>
gu ten</w>
as h
spi ri
Gesund heits
trans l
ser ver</w>
H al
C ro
Über ein
an genommen</w>
B ü
g ül
Be wer
Cent ral</w>
beginn ing</w>
Ma y</w>
cover ed</w>
Geb äu
Initi ative</w>
h äufi
p ages</w>
B usin
ast rop
T im
rec ently</w>
li ance</w>
ge eig
de p
, 000</w>
Gi pf
E ast</w>
ge k
sho ws</w>
plac es</w>
organ isation</w>
p al
serv ation</w>
Aug ust</w>
t licher</w>
Mitarbei ter</w>
choo se</w>
K u
re p
Ar ticle</w>
geh end</w>
Inter essen</w>
spezi f
F ach
gen annten</w>
ac ks</w>
ü bri
Bil d</w>
ann te</w>
bal ance</w>
5 .
J oh
kultu rel
ad d</w>
direc tion</w>
di enen</w>
Ser ver</w>
at temp
it es</w>
P C</w>
ein deu
ar in</w>
I r
C A
ter ien</w>
be stä
well -
zun ächst</w>
pos sibility</w>
mi gration</w>
consider ed</w>
aspec ts</w>
effec ts</w>
we g</w>
dy nam
proce du
gel eg
di glich</w>
an gebo
tats ächlich</w>
S outh</w>
promo te</w>
wäh len</w>
Barcel ona</w>
organ isi
gt ;</w>
& gt;</w>
No w</w>
J us
zi eren</w>
s ex
deta ils</w>
Regi erungen</w>
Ko so
sch utz</w>
M än
2 3</w>
B ul
fol ge</w>
äußer st</w>
4 .
äh n
di ent</w>
a men
bu ff
ser ies</w>
Proto kol
high er</w>
Jun e</w>
Gesund heit</w>
commit ment</w>
J av
Ge or
an no
S omm
Verein bar
g al</w>
Lu ft
wen den</w>
Russ land</w>
un ion</w>
off ice</w>
opport unities</w>
materi als</w>
O f</w>
par lia
e vi
jo int</w>
Beh and
set ting</w>
Ein führung</w>
di schen</w>
N ich
Kon fli
dou ble</w>
sk i</w>
k lu
r ing</w>
pres sure</w>
ger ung</w>
g as</w>
im mer
fi k
ter ia</w>
gewähr leisten</w>
trav el</w>
per haps</w>
ir gend
Amster dam</w>
veh ic
sch ätz
F a
Ver trau
high ly</w>
p le</w>
Umwel t</w>
Da bei</w>
spe ak</w>
g ers</w>
me an
n ie
N ieder
lo ss</w>
fre ien</w>
prep ared</w>
comple x</w>
lon g-
O k
bewer tungen</w>
e .
dra w</w>
Be kämp
syst eme</w>
redu ce</w>
Me tho
ti veness</w>
fün f</w>
Jap an</w>
n er
De sign</w>
plac ed</w>
verb unden</w>
ur s</w>
f s</w>
Hand els
Aus wahl</w>
w ed</w>
bestimm te</w>
Rat sprä
comp et
increas ing</w>
Fir st</w>
wün schen</w>
x is</w>
ter in</w>
E rach
reach ed</w>
Ter ror
li ge</w>
Boo king.com</w>
Erach tens</w>
Organ isation</w>
s ent
spä ter</w>
easi ly</w>
M P
f eld</w>
th anks</w>
con duc
Sp ain</w>
Bekämp fung</w>
N ational</w>
An zahl</w>
zei t
ag er</w>
den s</w>
s al
le diglich</w>
pri ority</w>
ko sten</w>
bis her</w>
pre vious</w>
W erk
enlar gement</w>
C ap
sy n
T age</w>
bau en</w>
ein hei
accep table</w>
Erfahr ung</w>
ges sen</w>
De velop
j our
zus etzen</w>
ver suchen</w>
ann er</w>
W ert</w>
cre ation</w>
accommod ation</w>
S um
verk ehr</w>
ass ess
E L
pl ant</w>
besch äf
rie g</w>
effici ent</w>
ologi es</w>
nu clear</w>
gesam te</w>
Amer ica</w>
öff net</w>
kre ich</w>
il ed</w>
di tion</w>
inn er</w>
lat est</w>
Öff ent
spru ch</w>
er c
wh ose</w>
Mitg lied</w>
cri pt</w>
al ing</w>
bet ro
ther more</w>
Gäste bewertungen</w>
A ra
stat us</w>
Te am</w>
respon se</w>
mäß ig</w>
f unding</w>
M icro
rou ght</w>
Verk ehrs
19 6
f lü
M ad
Tran spar
p un
An ti
H um
Um gebung</w>
Komm unik
Fortsch ritte</w>
3 00</w>
in fra
el ten</w>
som it</w>
ex ternal</w>
lin k</w>
Kamp f</w>
fun c
provi ding</w>
ch ing</w>
W ahr
Con vention</w>
comp re
wi der
prote ct</w>
er zeu
beh ind</w>
kri min
et ary</w>
F le
exp lo
I P</w>
innov ative</w>
Al so</w>
si mi
re pe
suppor ted</w>
ab sol
Famili e</w>
b ase</w>
Y or
Aktiv itäten</w>
ge funden</w>
schaf tlichen</w>
bestimm ten</w>
er e
ari ly</w>
An fang</w>
ver se</w>
star k</w>
gen heiten</w>
D inge</w>
assi stance</w>
H aus
ho hen</w>
m eines</w>
E ing
cap acity</w>
de ten</w>
vide o</w>
atmosp here</w>
K ultur</w>
mo bi
Her zen</w>
sam m
consu mer</w>
Fran kreich</w>
setz ungen</w>
Aut om
sta g</w>
Bes timmungen</w>
An aly
deci ded</w>
ic k</w>
g liche</w>
hin zu
Linu x</w>
Gener al</w>
S on
k rä
commer cial</w>
Soli dar
ar gu
gi ves</w>
C D</w>
sätz e</w>
produc ed</w>
C ity</w>
our cen</w>
instru ment</w>
supp ly</w>
Inte gration</w>
H inter
Währ end</w>
te sten</w>
n ö
f örder
be sitz
ti v
ex change</w>
Kommiss arin</w>
ó n</w>
Re g
Z ahl</w>
I tal
regul ations</w>
Industri e</w>
sib ilities</w>
b ür
er ous</w>
Vor aus
Proz ess</w>
selb st
ra li
G est
ho ben</w>
en ding</w>
pri m
lea ve</w>
g ünsti
ap poin
hervor ra
ung sp
bew us
wer s</w>
tain ed</w>
Man agement</w>
char ge</w>
br ingt</w>
sol chen</w>
Spra che</w>
di e
ausge stattet</w>
au m</w>
Vol ks
compre hen
Zent r
D I
le ben
W ahl</w>
rema ins</w>
am a</w>
apart ment</w>
Gä ste</w>
y l
kon zent
fun ction</w>
civi l</w>
4 5</w>
acc ord
sch ütz
Unter nehmen
industri al</w>
Vorsch riften</w>
Me er</w>
R ess
Ma i</w>
k a
sho p</w>
h ung</w>
add res
erk ennen</w>
ck et</w>
A gr
V o
f än
op h
K ultur
En ter
so und</w>
ren o
op tion</w>
read ing</w>
on dly</w>
P rü
th y</w>
Di alog</w>
our selves</w>
Ger ä
ple ased</w>
n ie</w>
zwei te</w>
S am
Bri tish</w>
indepen dent</w>
zi p</w>
pre par
c las
mög lichkeiten</w>
inter ess
soli dar
ent ed</w>
ar ing</w>
außer dem</w>
Organ is
O S</w>
P unkte</w>
Afri ca</w>
S wi
und es
fol low</w>
W asser</w>
ob wohl</w>
o il</w>
tic ally</w>
w ander
a vi
zahl reiche</w>
in i</w>
produ ce</w>
Ei gen
Ital y</w>
ge wis
Rau m</w>
R A
er weiter
discus sion</w>
Erklär ung</w>
ic ally</w>
si eren</w>
H and</w>
lei der</w>
auf genommen</w>
er ster</w>
B lo
si des</w>
si cal</w>
da durch</w>
ich ten</w>
Lan des</w>
te i</w>
nei gh
eb s
Er zeu
Jun i</w>
proper ty</w>
instru ments</w>
Res er
zeh n</w>
199 8</w>
cre ating</w>
un e</w>
äu ß
step s</w>
Produ ktion</w>
st -
emplo ye
re staurants</w>
Inst all
con ver
ti er
ish ed</w>
rei b
st ung</w>
on nen</w>
gen der</w>
ver l
O N
ord ini
le gung</w>
h es</w>
legisl ative</w>
St elle</w>
Entschei dungen</w>
le y</w>
Ukra ine</w>
terran ean</w>
pro b
N ation
tig ungs
geb aut</w>
K op
li m
stän de</w>
fis her
b ir
Syst ems</w>
pur pose</w>
wer k
rel ation</w>
L auf
tä ten</w>
con v
S -
f ishing</w>
m ein</w>
ten den</w>
simi lar</w>
los sen
O ri
M ich
publi k</w>
c um
spe ed</w>
pres ents</w>
fre qu
u t</w>
Mehr heit</w>
Dec ember</w>
let ter</w>
distri bution</w>
demon str
Auf merk
ho he</w>
gn isse</w>
air port</w>
St o
ti li
We b</w>
zeu ge</w>
Po sition</w>
Ira n</w>
wur f</w>
bel ow</w>
Kre di
op e</w>
em and</w>
lei cht</w>
sum mer</w>
form er</w>
über sch
popu lar</w>
charac ter
De z
reg ards</w>
E M
Koso vo</w>
spe e
procedu res</w>
mes sage</w>
Han del</w>
ge m</w>
e te</w>
au ber
gew öh
Fran k
ins gesamt</w>
L es
spr ün
ges ell
s ource</w>
N ur</w>
Berei che</w>
pl om
l ös
ein schließlich</w>
ill ed</w>
ex ec
ac ts</w>
S onn
gel an
T u
ru s</w>
D et
inten si
ic es</w>
st ability</w>
re over</w>
mo vement</w>
com promise</w>
is land</w>
ru le</w>
docu ment</w>
al lowed</w>
b rought</w>
s la
ogra ph
B lu
P ap
nation ale</w>
e valu
vari ety</w>
Gewal t</w>
v an</w>
re in
con struc
k ein
R ot
credi t</w>
ab ge
S we
ari es</w>
anno un
re si
Aufmerk samkeit</w>
pa id</w>
West ern</w>
Agr ar
p ul
einzi ge</w>
An forderungen</w>
P H
Wachst um</w>
H y
C li
Bal k
der t</w>
kl ar
k tive</w>
w ritten</w>
stell ten</w>
Sp iel</w>
Gef ahr</w>
con ference</w>
tel l</w>
s qu
U N</w>
in stead</w>
zwei ten</w>
acti vity</w>
Tran s
rei bung</w>
Nat ur</w>
help ful</w>
im pres
p ati
ri eben</w>
provi sions</w>
. 00</w>
a di
partn er
In sel</w>
conven i
benö tigen</w>
f r
Land wirtschaft</w>
1 ,
T ab
di stance</w>
m bo
konzent ri
i cial</w>
Proje kte</w>
M y
Kü che</w>
lie genden</w>
s sel</w>
ch tung</w>
Pre is
3 5</w>
mobi le</w>
an -
St unden</w>
ren e
ver gangenen</w>
Str and</w>
Rah men
sel f-
Fischer ei
vol len</w>
ra di
ar ran
Janu ary</w>
Servi ces</w>
Investi tionen</w>
ell a</w>
dam age</w>
men sion</w>
f la
Medi terranean</w>
th ous
k in
rel ation
Beschäf tigung</w>
eh er</w>
agen da</w>
K ern
pa yment</w>
An frage</w>
gel ten</w>
stat ement</w>
US -
fas sen</w>
sel s</w>
cl ass</w>
fil m</w>
m ann</w>
cri teria</w>
V al
ein gesetzt</w>
shi ps</w>
gi ving</w>
interest ing</w>
de te</w>
2 5
s th
ha fen</w>
fran zö
star ted</w>
l auf
ges ellschaft</w>
archit ec
stu dy</w>
Dez ember</w>
O N</w>
letz t</w>
D om
ent al</w>
contri bution</w>
ologi en</w>
po ver
it e
I D
ter t</w>
tei en</w>
tri t
F ak
Par k
an ia</w>
durch geführt</w>
qu iet</w>
b ran
ca .</w>
ob en</w>
ex pla
L E
la un
Frühst ück</w>
cli ck</w>
ro r</w>
wi d
kon trol
bi o
M eine</w>
Fol gen</w>
comp on
Re form</w>
di se
En ergie</w>
transpar ency</w>
to ol</w>
inst al
V is
nis sen</w>
Emp feh
Stand punkt</w>
be vor</w>
wei s
B as
inter pre
vi er
requ ire</w>
Mar ch</w>
Regel n</w>
in f
genie ßen</w>
dan ke</w>
Transpar enz</w>
Diskus sion</w>
viol ence</w>
ex hi
downlo ad</w>
re gu
modi fied</w>
docu ments</w>
stra tion</w>
To day</w>
k i
ex tra</w>
eff ort</w>
sign ed</w>
vo c
pur su
Oc tober</w>
Wir k
Wettbewer b</w>
se ts</w>
wichti ger</w>
pro mot
i le</w>
b all</w>
b ly</w>
ck er</w>
D or
p ass</w>
Feri en
n ommen</w>
it em</w>
m .</w>
ep h
Berich ts</w>
C am
kon nten</w>
eigent lich</w>
T it
Bel gi
rela x
an ge</w>
j ün
H ung
pos es</w>
St är
europä ischer</w>
S A
kei ts
O pf
S lo
M any</w>
elec tri
w -
Grün den</w>
R oom</w>
Bil d
ci a</w>
Uni versi
nie dri
jus ti
Span ish</w>
t ask</w>
s us
Al ler
prä sen
Yor k</w>
wür di
Benutz er</w>
expres s</w>
ver stehen</w>
il om
neu er</w>
Ma sch
bath room</w>
ab schie
Jahrhunder t</w>
ie te</w>
Ri ghts</w>
get an</w>
Fur thermore</w>
hol d</w>
tain s</w>
equ al</w>
hu ge</w>
g ste</w>
sag te</w>
dra ft</w>
Gr enzen</w>
Schwi er
Z un
G ei
opp ing</w>
sh ops</w>
le ge</w>
begrü ße</w>
Bu d
Sch ließ
typ es</w>
r at
par king</w>
or row</w>
immedi ately</w>
ü b
Unter such
Auff assung</w>
L ehr
erwar ten</w>
Z ur</w>
St äd
M useum</w>
B ot
T or
Portu gal</w>
Frei heit</w>
sec tion</w>
aus reich
üh m
Ter ra
L ab
en a</w>
Mär z</w>
sch wer
O per
P res
f alt</w>
Per son</w>
Prä sidentschaft</w>
Person al</w>
V illa</w>
Feh ler</w>
Ber u
sch au
benef its</w>
oper ating</w>
integr ated</w>
ho st
Ne w
S M
happ y</w>
aktu ellen</w>
wen ige</w>
re a</w>
elec tron
el e</w>
lie f
y ond</w>
to ols</w>
Tele f
T H
lab our</w>
ill s</w>
Dur ing</w>
minist er</w>
Priv at
chan ged</w>
B ad</w>
Sa che</w>
app lied</w>
con st
n or</w>
qu es</w>
c ast
gel ö
Forsch ungs
Ver änder
drück lich</w>
mu t</w>
Bil dung</w>
sel n</w>
dis crimin
do w</w>
In de
Re public</w>
ro s</w>
n a</w>
ve ments</w>
Y our</w>
Bem üh
b ahn
avo id</w>
fol gt</w>
men sch
mor gen</w>
Deb ian</w>
h ed</w>
altern ative</w>
st ers</w>
st able</w>
Develop ment</w>
kur z</w>
ade qu
m ous</w>
buil d</w>
apart ments</w>
C ha
stand s</w>
d .</w>
et z</w>
Lin ie</w>
E re
N ationen</w>
ein fa
wi esen</w>
D u</w>
lö sen</w>
eff e
be came</w>
Itali an</w>
to -
kti ven</w>
ele ments</w>
größ ten</w>
consequ ences</w>
we g
Do wnlo
C -
fan gen</w>
G oo
all ein</w>
öffent liche</w>
bei tragen</w>
solidar ity</w>
un mittel
ag ing</w>
S ou
colleag ues</w>
ne y</w>
in en
ätz e</w>
Kom promis
re view</w>
Al though</w>
bo x</w>
hör en</w>
B undes
einzi gar
ge tro
E ig
O -
o ber
p ho
ein gesch
ro und</w>
ali st</w>
Fäl len</w>
v ent
ständi ge</w>
por ate</w>
Cent er</w>
ord n
H eute</w>
go es</w>
Bürger innen</w>
k at
entsprech enden</w>
fa ir
S c
gewöh n
dig ital</w>
be handelt</w>
Ch rist
D o</w>
w onder
min i
Wi der
eg ation</w>
challen ges</w>
ma sch
cur ren
requi res</w>
pover ty</w>
dri ve</w>
b illion</w>
ac e
speci fic
ut ely</w>
institu tion
h aus</w>
erneu t</w>
wieder hol
S im
t al</w>
advan tage</w>
Stad t
Dat eien</w>
berei t
Bed ürf
sub stan
Ju ly</w>
ve au</w>
mm ing</w>
conc ept</w>
so fort</w>
sat z
- in-
Kin der
k i</w>
transp or
fin ally</w>
An satz</w>
si x</w>
analy sis</w>
go t</w>
Amend ment</w>
1 -
use ful</w>
implemen ted</w>
berücksichti gt</w>
un sch</w>
ge wäh
de cken</w>
199 7</w>
ber echti
wir ken</w>
v ali
ange sichts</w>
Öffent lichkeit</w>
At mosp
alisi ert</w>
S af
elec tions</w>
Bet ei
expec t</w>
con trac
c .</w>
Pre ise</w>
W TO</w>
sch ool</w>
Bemüh ungen</w>
Kön ig
Stu di
be hör
person s</w>
kti v</w>
il legal</w>
bed ingt</w>
E C</w>
Bür gern</w>
C lub</w>
Fe der
Af gh
ra t</w>
tal k</w>
congrat ulate</w>
tra in</w>
effici ency</w>
le gt</w>
kl assi
ur sprün
u le</w>
bek ämp
ast ern</w>
en ced</w>
die jenigen</w>
buff et</w>
G al
recom mend
empha si
erfol gt</w>
Nat ürlich</w>
grow ing</w>
b ot
O st
tempor ary</w>
lang fris
for ces</w>
suffici ent</w>
einf ach
Sin ne</w>
s inn
ther wise</w>
ab ri
ev ent
2 8</w>
st atisti
minim um</w>
re siden
qu ar
bal an
conflic t</w>
E is
2 6</w>
Janu ar</w>
F R</w>
ä st
ut ting</w>
b y
sel y</w>
au lt</w>
Lissab on</w>
zü gi
employe es</w>
da ily</w>
establi sh</w>
ber ühm
ke y
demokrati schen</w>
per man
re ality</w>
m in</w>
Tages ordnung</w>
Lo c
trau m</w>
tom orrow</w>
verhin dern</w>
Rechts vorschriften</w>
gre at
prac tical</w>
se ktor</w>
hin ter</w>
occ a
lab or
U R
monit oring</w>
m ess
St .</w>
fol genden</w>
Bil der</w>
On lin
ul i</w>
gh t
v in
V öl
hau pt</w>
fas st</w>
T at</w>
ver standen</w>
S ho
K ün
zu frie
t au
Kra ft</w>
as tic</w>
ec ken</w>
sp orts</w>
num erous</w>
an lage</w>
Ere ig
off icial</w>
con om
off ered</w>
kur z
sa ying</w>
Ok tober</w>
Nor th</w>
Präsiden ten</w>
Änder ung</w>
wan ted</w>
I L
sor g
ti tu
l ate</w>
gen s</w>
b ru
g ation</w>
Wah l
be halten</w>
schö nen</w>
organis ations</w>
Th ank</w>
proc esses</w>
car ry</w>
st es</w>
gra phi
Par ty</w>
fri ends</w>
Ver tei
L assen</w>
t ac
el te</w>
ann ual</w>
K ommission
Flug hafen</w>
hä tten</w>
high est</w>
le -
histor ical</w>
fahr t</w>
Cent re</w>
th in
cru cial</w>
ver öffent
vil lage</w>
ra tive</w>
bet rä
Hö he</w>
ell es</w>
vot ing</w>
ih res</w>
B on
besch rän
Lie fer
Produ kt
iz ed</w>
g a</w>
lo wer</w>
kommen s</w>
zu führen</w>
zi p
terror ism</w>
richti ge</w>
S il
ch tet</w>
ig ran
techn ischen</w>
erfolgre ich
größ te</w>
Fir ma</w>
prote c
l o</w>
E conom
Dru ck</w>
ge worden</w>
g keiten</w>
N r.</w>
P as
st ark
eh m
al te</w>
nah e</w>
cir cum
ver gessen</w>
off izi
d ner</w>
be mü
as se</w>
zun eh
l as</w>
Kun st
Busin ess</w>
3 -
Behand lung</w>
get ary</w>
An sch
An ge
ff enen</w>
P D
j ähr
ß er</w>
ag ed</w>
lar gest</w>
Sp ei
Mon aten</w>
sec ure</w>
Sch lü
ig keit</w>
Urlau b</w>
S up
Kap it
wer te</w>
a der</w>
ler nen</w>
K no
c r
k ehr
off ering</w>
maxim um</w>
Syst em
tre i
l am
reas on
Menschen rechts
Zwei tens</w>
c lu
reduc tion</w>
on t</w>
isti schen</w>
industri e</w>
W ell
M acht</w>
ver th
l ing
Re staurants</w>
ver treten</w>
sich ern</w>
li ves</w>
W a
- F
l esen</w>
far mers</w>
wer t
St ar
verth eless</w>
li a</w>
ch i
mor ning</w>
z in
um -
bed au
S P
wa ste</w>
pa ar</w>
cra ft</w>
i ze</w>
fin e</w>
C al
de ath</w>
wor ld
5 0
si gkeit</w>
trans fer</w>
fü gen</w>
Drit t
h ou
zeichn ung</w>
we eks</w>
tim ate</w>
comprehen sive</w>
I s</w>
wä l
Finanzi erung</w>
lear n</w>
fi el
be yond</w>
Veranst al
D oppel
schein lich</w>
mark s</w>
Ber at
ss -
lo sen</w>
caus ed</w>
Bul g
F lu
ver sucht</w>
trit ts
Sch utz
si l
K ör
Angele genheit</w>
Ta gen</w>
2 4
Se e</w>
em ail</w>
f ts
be für
di sa
I mp
se as
op tions</w>
rel ating</w>
po or</w>
ali en</w>
sor gung</w>
In halt</w>
w ser</w>
Atmosp häre</w>
ide as</w>
L eg
G ot
sp rech
Poli tik
st ab
S icht</w>
re ference</w>
angem essen
Ba sis</w>
ear ch</w>
it en</w>
ch ter</w>
ph one</w>
h .</w>
T ou
c ent</w>
histor ic</w>
Dat ei</w>
techn ologies</w>
war um</w>
verantwor tlich</w>
pro fi
star ting</w>
ander em</w>
Direc tive</w>
wei st</w>
s ession</w>
Musi k</w>
Ad resse</w>
es si
Sec ondly</w>
Aspe kte</w>
d nis</w>
Micro soft</w>
C amp
r aten</w>
ex ac
i k
gewi esen</w>
F ron
Uni versity</w>
ser ves</w>
le b
über haupt</w>
ver wal
off en</w>
interest ed</w>
ne ws</w>
voll ständig</w>
Aufenth alt</w>
metho ds</w>
ti e
Pal est
min ute</w>
gen utzt</w>
di vi
M er
some times</w>
can di
g .</w>
ex tent</w>
s äm
Ver gan
institu tional</w>
emp feh
verpflich tet</w>
fol gen</w>
P P
An der
sh opping</w>
Span ien</w>
un er
sec tors</w>
Kon ferenz</w>
pl ans</w>
ge ments</w>
tur ned</w>
re land</w>
erfül len</w>
langu ages</w>
E ven</w>
l ess
accord ance</w>
w ine</w>
du le</w>
trä gt</w>
D en</w>
Al tern
R en
nor m
N ord
entsprech end</w>
Nach bar
de gre
Ress ourcen</w>
Nach fol
dru ck
Entschließ ungs
any thing</w>
men tion</w>
beg in</w>
al one</w>
G et
re le
Ver häl
sc ap
st ör
jewei ligen</w>
gew esen</w>
gesch affen</w>
Viel e</w>
M us
pla yer</w>
A gent
prob ably</w>
f it
R O</w>
publi shed</w>
stru ktur</w>
metho d</w>
Be gin
nach ten</w>
Sch ritte</w>
Itali en</w>
zeu g</w>
olog ischen</w>
busin esses</w>
Me er
sc ale</w>
199 6</w>
conc ent
B rü
absol utely</w>
schütz en</w>
br ing
er ter</w>
brau cht</w>
rech ts</w>
ten en</w>
mach ine</w>
bre chen</w>
I reland</w>
P hi
H u
cu t</w>
A -
streng th
on y
M and
häufi g</w>
end lich</w>
Wo chen</w>
Con ference</w>
ste ts</w>
ra ised</w>
be ste</w>
Begin n</w>
cli ents</w>
Re publik</w>
J uli</w>
nat ür
di gt</w>
Aller dings</w>
leist et</w>
Berichterstat terin</w>
ho ch</w>
zei ten</w>
ment ar
scienti fic</w>
c on</w>
ch s
b and</w>
acc ession</w>
en se</w>
Publi c</w>
B or
sti e
tn isse</w>
r ück
Ein ige</w>
l auf</w>
is sen</w>
ou rable</w>
k ers</w>
moder nen</w>
vi ert</w>
z t</w>
s a</w>
k ro
P en
imple ment</w>
Min der
Erfahr ungen</w>
sen si
mo tion</w>
av ing</w>
M au
F ac
erfolgre ich</w>
s un
s ales</w>
und ation</w>
Grupp en</w>
Da zu</w>
Chr isti
bi a</w>
ti ges</w>
Schwier igkeiten</w>
d ol
N AT
proz ess</w>
pla yers</w>
challen ge</w>
Vertrau en</w>
H ä
ke ep
Fun ktion</w>
chil d</w>
Arbeit nehmer</w>
Air port</w>
affec ted</w>
re lease</w>
as su
sc ope</w>
prü ft</w>
cer ti
Ba de
S port
E L</w>
Vergan genheit</w>
betre ff
lo sigkeit</w>
appe ar</w>
power s</w>
besser e</w>
ver trau
ad verti
co he
oper ate</w>
f ish</w>
stre et</w>
außer halb</w>
W erte</w>
H el
Pre sident
s ü
l le</w>
erwar tet</w>
W est</w>
C i
per fe
ch ance</w>
Un ter</w>
zahl reichen</w>
ter en</w>
ail s</w>
accep ted</w>
gesch ütz
vorgesch la
gen ce</w>
dou bt</w>
ander s</w>
ati v
z .</w>
bit ten</w>
D ro
separ ate</w>
pas sen
Hin sicht</w>
schaf t
fiel ds</w>
On ly</w>
wor ked</w>
world wide</w>
M om
camp a
n ess
adop t</w>
priv aten</w>
flä che</w>
Ein richtung</w>
Heraus forderungen</w>
selec tion</w>
M ag
Bes onder
long- term</w>
F und</w>
ap preci
process ing</w>
str en
S wis
inc or
gi c</w>
h eben</w>
cla im
tr ying</w>
em er
lik ely</w>
Di stri
Austri a</w>
wel ches</w>
erlau bt</w>
com fort</w>
Milli ar
genu g</w>
a war
wal king</w>
gesch i
Arbeitsplätz e</w>
Whi le</w>
m and
au di
In fra
persön lichen</w>
streng ungen</w>
I -
ck ets</w>
neu es</w>
Par teien</w>
ci ties</w>
6 .
th ought</w>
ün f
est er</w>
ex erc
le c
b rie
zu min
Zentr al
D ann</w>
i or</w>
ger ungen</w>
aus schließlich</w>
flexi ble</w>
jus tice</w>
ther ap
gar den</w>
M ün
w ron
ma p</w>
lo st</w>
Instru ment</w>
bar er</w>
erklär t</w>
g la
b es</w>
Ges prä
zumin dest</w>
g g
mon th</w>
ausge zeich
begrü ßen</w>
dat ab
W ann</w>
ima ges</w>
de ck
innov ation</w>
Solidar ität</w>
fäl le</w>
G N
F ähi
K al
sit ting</w>
ach tet</w>
ver age</w>
pro je
k ennen</w>
der ungen</w>
Mo reover</w>
pr ises</w>
he ad</w>
stell te</w>
ori enti
f ying</w>
b ig
Pro te
oc cu
a dap
Sit zung</w>
Woh l
stoff e</w>
est er
t i</w>
co -
F alls</w>
2 9</w>
e- mail</w>
Angele genheiten</w>
über nehmen</w>
gn is</w>
führ te</w>
letz te</w>
pro per</w>
k ap
P un
So ci
No t</w>
coun t</w>
deut schen</w>
elek tron
neg ative</w>
ri gh
F el
Er stens</w>
initi atives</w>
R ed</w>
fäl lt</w>
A K
jo in</w>
erinn ern</w>
Sch en
k ts</w>
S onder
sp rü
Pra xis</w>
Afgh an
Bet rie
w .</w>
H T
Protokol l</w>
wahr scheinlich</w>
automati sch</w>
Sch wer
Aussch uß</w>
Techn ologie</w>
inten ded</w>
tal king</w>
. m.</w>
en ze</w>
ö ri
allgem einen</w>
E m
zu künf
at tra
over all</w>
vorgesch lagen</w>
n ä
v ital</w>
men u</w>
su itable</w>
stän den</w>
si en</w>
ge kommen</w>
Gebäu de</w>
President -in-
Opf er</w>
entschei den</w>
S om
An nahme</w>
Auf gaben</w>
n ü
hil fen</w>
p lus</w>
ber t</w>
l aufen</w>
bor ders</w>
aff t</w>
o t</w>
histor ischen</w>
publi c
3 1</w>
Vertre ter</w>
I F
ist s</w>
President-in- Office</w>
Verpflich tungen</w>
k ürz
bil den</w>
sta aten</w>
il leg
an g
Fre e</w>
at or
N eben</w>
des pite</w>
Mittel me
k rise</w>
b lu
begr enz
dem ands</w>
An strengungen</w>
erkenn ung</w>
geh öri
k en
3 2</w>
se chs</w>
ver mei
her aus
st ress</w>
f res
Spiel er</w>
Gr öß
y our
vol ution</w>
appro ved</w>
sel ben</w>
sch wer</w>
ti sch</w>
gel t</w>
Agen da</w>
k am</w>
su s</w>
expres sed</w>
tar get</w>
influ ence</w>
bewus st</w>
ei l</w>
gre en</w>
A T</w>
com ments</w>
g ames</w>
aci ous</w>
kl ein
nam ely</w>
Regi erungs
Ar mut</w>
ter e</w>
S Q
kar te</w>
esti val</w>
R ats
d ated</w>
commit ted</w>
P ati
get ting</w>
Organis ationen</w>
Fol ge</w>
represent atives</w>
eh em
zu dem</w>
Frank fur
hear d</w>
strategi c</w>
ft wa
zeich nen</w>
ru ption</w>
correc t</w>
N un</w>
ben utzt</w>
Über wach
Kar te</w>
Regi on
eindeu tig</w>
P L</w>
run ning</w>
h our</w>
cohe sion</w>
Ih res</w>
grupp e</w>
D enn</w>
expec ted</w>
Kun den
Eig ent
M ore</w>
Enter prise</w>
Sec urity</w>
Kri terien</w>
P S</w>
call s</w>
Z immer
sch o
install ation</w>
contra ct</w>
T r
A gre
aus ch</w>
fl uss</w>
Syst eme</w>
for ced</w>
7 5</w>
traff ic</w>
li erung</w>
I ts</w>
main tain</w>
or ie</w>
größ ere</w>
W er</w>
P au
impro ved</w>
Ho ff
vor gelegt</w>
G rie
Comp uter</w>
forder ung</w>
bei de</w>
et c.</w>
un bedingt</w>
stru ktu
g yp
tro tz</w>
swi mming</w>
tro ll
S tim
steh ende</w>
Frie den</w>
zusätz liche</w>
moun tain</w>
d t</w>
s cri
administ rative</w>
fan gre
fre ie</w>
main ly</w>
W unsch</w>
Ö ster
ter race</w>
mp tion</w>
ab kommen</w>
dar stellt</w>
del ines</w>
c en
Schlus sel
li en</w>
us ually</w>
se e
gel n</w>
zi g</w>
stu di
struc tural</w>
cri tical</w>
ar a</w>
automati cally</w>
ti ous</w>
B S
sa chen</w>
re forms</w>
L e</w>
dest ens</w>
Su per
M c
ch ec
W ol
P ot
Goo gle</w>
deci de</w>
Im mobili
k ul
wei ten</w>
your self</w>
s le
Binnen markt</w>
pe ace
Al t
us w.</w>
M ac
e e
even ing</w>
o de</w>
st ore</w>
visi tors</w>
Co sta</w>
Sta r</w>
t abled</w>
Zus timmung</w>
bo t</w>
l ern</w>
ra il
M ei
conclu sion</w>
war m</w>
al tet</w>
com par
W ein
M ini
bour g</w>
gele gen</w>
circum stances</w>
famili es</w>
al ter</w>
Ob wohl</w>
c in
f el</w>
moder ne</w>
den e</w>
ri d</w>
plann ing</w>
nor mal</w>
he al
ent schie
m at</w>
Sta at</w>
di plom
Fun ktionen</w>
re gre
re agi
prote cted</w>
E T
U K</w>
Produ ktions
drin gend</w>
Vereinbar ung</w>
verein bar
li gung</w>
in si
Ber g
20 20</w>
freu en</w>
c e-
I st</w>
glei che</w>
tem perat
encoura ge</w>
Ex per
kon stru
et ings</w>
di sche</w>
ori en</w>
contro ll
sup ports</w>
relation ship</w>
pri orities</w>
überzeu gt</w>
be ein
F alle</w>
un employment</w>
beg innen</w>
pho to</w>
reduc ed</w>
emis sions</w>
auf s
Ro oms</w>
contri bute</w>
D r.</w>
sh e
par te
2 .</w>
sch ung</w>
Stell ung
open ing</w>
g st</w>
s ources</w>
prac tic
Ob je
Gesch ä
selbst verständlich</w>
cri me</w>
L it
struc tures</w>
berücksichti gen</w>
ver abschie
f ast
erle i</w>
a i
For mu
Gesam t
au t
E l</w>
m är
tim s</w>
competi tive</w>
M O
um fangre
hin weisen</w>
Verwal tung</w>
erg än
s eines</w>
n ern</w>
k aum</w>
Sp ec
verfüg bar</w>
Bem erk
heu tigen</w>
er enden</w>
0 -
G lau
tz dem</w>
eth n
entsprech ende</w>
L eute</w>
k ü
effec tively</w>
Kl ein
St ation</w>
k ann
tain ing</w>
S ite</w>
Er n
stär ker</w>
de ckt</w>
confi dence</w>
cri tic
agri culture</w>
B l
f oo
Gr and</w>
Di re
ru p
geb iet</w>
B ahn
ge -
Kredi t
T em
curren cy</w>
deli very</w>
Rei se
ens uring</w>
pa y
and a</w>
H ause</w>
bu ch</w>
erwäh nt</w>
be ziehen</w>
ha ft</w>
S eh
Onlin e-
anti -
S ter
lar ger</w>
führ ten</w>
Co de</w>
f ant
ex ist</w>
itali en
schaf tliche</w>
l -
finan cing</w>
kon om
fun ctions</w>
Gipf el</w>
introduc ed</w>
Re ak
Haush alt</w>
ä den</w>
gener ation</w>
L am
E ach</w>
In halte</w>
Terror ismus</w>
Se ktor</w>
schön e</w>
entsp richt</w>
B ec
lich ung</w>
ho ffen</w>
ra h
por ted</w>
Inv est
exc ep
vot es</w>
E ff
form at</w>
Durch führung</w>
scre en</w>
- -
gere cht</w>
fur nis
der zei
de vi
j ahr</w>
coun ter
Ele k
de cor
anim als</w>
disc uss</w>
pleas ant</w>
min destens</w>
increas ingly</w>
ver lässi
ge zeigt</w>
deta iled</w>
sp er
adequ ate</w>
D re
unterschie dlichen</w>
bil ater
vic tims</w>
um s
so fern</w>
isti c</w>
infra structure</w>
sicher zustellen</w>
gan gs
electron ic</w>
Wah len</w>
B ran
sidi ar
regi me</w>
aktu elle</w>
De sign
mehr eren</w>
ge ändert</w>
sp richt</w>
er reich
Er d
ta r</w>
w ood</w>
Wh y</w>
Mit teilung</w>
Afghan istan</w>
colle c
olog ische</w>
Rus sian</w>
An erkennung</w>
la ws</w>
Schließ lich</w>
ge tragen</w>
N ahr
transpar ent</w>
tel eph
P l
z lich</w>
akzep tieren</w>
Z er
Hi gh
0 1</w>
stu dents</w>
M ex
ar ge</w>
th in</w>
E-Ma il</w>
Chin ese</w>
gen cy</w>
rä u
defin ed</w>
S .</w>
Be stand
cont in
acc es
W äh
pa in
stat tung</w>
li gt</w>
exten sive</w>
Betri ebs
getro ffen</w>
go al</w>
w inn
discus sed</w>
be ds</w>
is ely</w>
Char ak
fizi erung</w>
ban ks</w>
milit är
erzi elt</w>
plan ts</w>
über nachten</w>
pp ing</w>
hil fe</w>
ver tre
ex tra
sp ann
cro ss-
bi tion</w>
re fu
Sp a
K rieg</w>
imm ern</w>
Produ kten</w>
Re formen</w>
t ations</w>
h eb
Pre mi
vor her
pr is
intel li
Ter min
vir tu
stim me</w>
Vor teile</w>
be qu
speak ing</w>
a p</w>
but ed</w>
lief ert</w>
ut y</w>
ch ter
K las
m anner</w>
Al p
S ant
s eiten</w>
ori al</w>
li mit</w>
pur poses</w>
amerikan ischen</w>
a .</w>
V ic
Lux em
el se</w>
administ ration</w>
ly mp
wesent lich</w>
T sch
DV D</w>
techn ische</w>
ar tige</w>
Stabili tät</w>
ri es</w>
discus sions</w>
erk annt</w>
tour ist</w>
be stehenden</w>
5- 0
particip ation</w>
bud getary</w>
stär k
hoch wer
ehem ali
7 -
feat ure</w>
Ide e</w>
assess ment</w>
wron g</w>
under standing</w>
x -
as ks</w>
Verbrau cher
lin ked</w>
ch ern</w>
u tions</w>
h tt
at ure</w>
Techn ologien</w>
N ations</w>
x es</w>
t our</w>
4 00</w>
rech ten</w>
ück e</w>
Quali täts
ad ed</w>
titu de</w>
develop ments</w>
V il
meas ure</w>
f rüh
manag ed</w>
b ü
En ga
st ated</w>
er fahren</w>
b ab
eng ine
.. ..</w>
é s</w>
deli ver
glau ben</w>
Sü d
ben utzen</w>
Zun ächst</w>
S ing
um gesetzt</w>
Kün st
E mis
ru ral</w>
posi tions</w>
7 .
specific ally</w>
en des</w>
vo ice</w>
exac tly</w>
19 5
stie g</w>
bor n</w>
si zed</w>
mit ten</w>
f ei
V ier
ris ks</w>
partner ship</w>
Vol k</w>
fest gelegt</w>
G ast
a h</w>
sh of</w>
Zu dem</w>
b ul
akti v</w>
Fu ß
sich ten</w>
j un
par ag
pas sen</w>
lo ve</w>
Produ kt</w>
su ite</w>
si vely</w>
k ungen</w>
s agt</w>
notwendi gen</w>
te ach
lea ders</w>
er greifen</w>
ck ed</w>
b on
2 6
satis fac
st ent</w>
n ütz
Jah res
open ha
kommen den</w>
t ari
power ful</w>
ga in</w>
per spec
Fun ktion
Con stitu
enter prises</w>
Stand ard</w>
J ust</w>
gelö st</w>
Anwen dungen</w>
Arch ite
h und
be darf</w>
I ma
ac ci
Fre u
Gar anti
Agre ement</w>
introduc tion</w>
mem ber
fel low</w>
V ari
be ha
Th en</w>
wan ts</w>
i d
Vertra gs</w>
ent ry</w>
wor th</w>
ste chn
ll a</w>
colle ction</w>
sp acious</w>
Pro c
sp ie
ati vely</w>
umfangre ich
finanzi ellen</w>
cle an
wh om</w>
v ac
Br us
regu lar</w>
läu ft</w>
N ah
N u
ex isti
geleg ten</w>
g lie
lat er
i um</w>
gui delines</w>
ther e
sieh e</w>
p aper</w>
ein gerichtet</w>
sa ys</w>
M A
esti c</w>
aim ed</w>
kli cken</w>
y n
199 5</w>
Leist ungs
war ten</w>
fac ilit
sho wer</w>
Bre ak
ali sten</w>
E G
advan ta
Fl or
Li z
discrimin ation</w>
N utzen</w>
L -
ri ffen</w>
Inde ed</w>
pla yed</w>
mög licherweise</w>
mög lichen</w>
lux uri
beg an</w>
Ver sch
respon d</w>
Verf assung</w>
Ein richtungen</w>
Ab schließend</w>
prec isely</w>
Sch we
zu letzt</w>
entwick lung</w>
ch mal</w>
vi eren</w>
erfül lt</w>
Mul ti
Fle xi
I N</w>
si t</w>
wonder ful</w>
lu ß</w>
besonder en</w>
Milliar den</w>
pro por
grupp en</w>
kit chen</w>
di enst
Apart ments</w>
clo sely</w>
wor ten</w>
T est
rit ann
p il
Währ ungs
bestimm t</w>
re presents</w>
li c</w>
T ier
ass ungs
er land</w>
Fre ih
st ro
eri es</w>
consider able</w>
open ed</w>
refer red</w>
Ch ance</w>
p assi
be coming</w>
Konta kt</w>
Wettbewerbs fähigkeit</w>
Palest ini
wei t
fo unded</w>
Swis s</w>
Ü ber</w>
o therwise</w>
happ en</w>
O sten</w>
Lei t
cam era</w>
je derzeit</w>
grün det</w>
mög lich
D e</w>
r en</w>
ver lei
Vor berei
re present</w>
ange zeigt</w>
ier ten</w>
ger ing
ph ra
thous ands</w>
T y
H altung</w>
A le
selec ted</w>
streng then</w>
Europ e
t y
sicher lich</w>
im migration</w>
i al</w>
M ol
proper ly</w>
conv inc
ten d</w>
ge mü
o te</w>
poli ce</w>
de -
Aus bildung</w>
Gre ece</w>
vermei den</w>
u tive</w>
zus timmen</w>
le ment</w>
Su che</w>
Ira q</w>
tra ck</w>
D A
ch ron
Stand ards</w>
F la
comp ens
Stra ße</w>
Gel d
Sy n
Besu ch</w>
program s</w>
Au gen</w>
M el
wer ke</w>
Par tei</w>
Proz ent</w>
R el
So cial</w>
co ffe
fac ing</w>
M ess
ear lier</w>
I denti
los oph
breit en</w>
du m</w>
geeig net</w>
re jec
Re zep
eingesch rän
Bel ar
2 8
spiel e</w>
berei tet</w>
4 8</w>
gew ün
ander es</w>
qu anti
&apos; ll</w>
Un fortunately</w>
a g</w>
K ateg
suppor ting</w>
st ausch</w>
wh ite</w>
Pe ople</w>
part ment</w>
P T</w>
O lymp
Mon ate</w>
Se a</w>
Rom a</w>
r ent</w>
P hot
Lei der</w>
f en
Poli cy</w>
glob alen</w>
frei heit</w>
Instru mente</w>
O S
Viel en</w>
N icht</w>
Beschäf tigungs
ho sp
teleph one</w>
Grie chen
l ass</w>
ges und
Sit z
e ten</w>
met res</w>
impro ving</w>
verfol gen</w>
Fo re
erzi elen</w>
coordin ation</w>
1 50</w>
it ation</w>
af ter
Vol l
C lick</w>
C le
de dic
Z y
net works</w>
Medi en</w>
o .</w>
provi sion</w>
wei te</w>
fres h</w>
Mitgliedsta at</w>
zei chen</w>
Minist er
Somm er</w>
Lebens mittel
we ap
un t
So ftwa
rech t
rec eption</w>
Schla f
ster ed</w>
an ische</w>
Berich te</w>
il -
sch reiben</w>
medi cal</w>
verbesser t</w>
Zei chen</w>
w ent</w>
st ein</w>
mu si
nach dem</w>
techn i
mark eting</w>
in side</w>
vor gesehen</w>
sp end</w>
Nachfol gend</w>
M ach
eu ch</w>
Regel ung</w>
P lan</w>
Kenn tnis</w>
bet onen</w>
w ah
s li
men s</w>
Install ation</w>
A sy
sy mbo
mechan is
en det</w>
e ad</w>
Kin dern</w>
he ar</w>
be zo
An spruch</w>
den s
oper ations</w>
an ces</w>
tu red</w>
ig h</w>
gelan gen</w>
z ing</w>
L ag
funktion iert</w>
stär ken</w>
a y
Swi tz
T au
Gre en</w>
y al</w>
re member</w>
degre e</w>
kl are</w>
connec ted</w>
is tics</w>
übersch reit
rec ord</w>
ob ach
o o</w>
w in</w>
sc en
fo ot
K ing
lie fer
do wn
ac es</w>
fisher ies</w>
ad ju
H or
difficul ties</w>
fol lowed</w>
b illi
War um</w>
e b</w>
Au stra
dig it
füh l</w>
sa ve</w>
sur ance</w>
ru fen</w>
C he
vol ler</w>
kti eren</w>
P len
a i</w>
di g</w>
cel eb
ge ber</w>
pl ätze</w>
Initi ativen</w>
Febru ary</w>
Abgeord nete</w>
gra du
land scap
c ement</w>
Web seite</w>
F r
v ated</w>
schnit t</w>
Hum an</w>
purch ase</w>
li sten</w>
D ra
bro ad</w>
Frankfur t</w>
entschie den</w>
reason able</w>
er stellt</w>
Viel falt</w>
Spra chen</w>
is ine</w>
en heit</w>
dra wn</w>
inform ed</w>
S ig
w and</w>
ge wal
el ement</w>
sch lä
b us
Verwal tungs
Gr enz
zwei fel
tradi tion</w>
att le</w>
m as</w>
ic o</w>
auf merk
Mo st</w>
ha ften</w>
Tä tigkeit</w>
S O
aus drücklich</w>
kon ferenz</w>
ti ef
compon ents</w>
au ßer</w>
pre sidency</w>
v ent</w>
cli ent</w>
anim al</w>
it ems</w>
erhö hen</w>
For derung</w>
tel e
grei f
J etzt</w>
möglich st</w>
p ath</w>
de ep
Tur k
re fer</w>
As soci
sch lagen</w>
sch ä
ver ring
de aling</w>
ber ich
zent rum</w>
di versity</w>
elegan t</w>
an ci
e. g.</w>
Famili en</w>
app lies</w>
pla ying</w>
inform ieren</w>
ehr te</w>
V ir
om men
htt p</w>
Econom ic</w>
Innov ation</w>
su m</w>
an geb
Au di
g or
At lan
politi scher</w>
jewei ls</w>
w indi
rich tet</w>
Stim me</w>
S he</w>
gener ally</w>
Tran spor
parlia mentary</w>
tr ust</w>
C ze
b ritann
Bar ro
eli min
consider ation</w>
enti rely</w>
e e</w>
Absch luss</w>
gerä um
bo dies</w>
H om
ge fordert</w>
We ge</w>
Flü cht
wel cher</w>
tour ism</w>
Dem oc
teil weise</w>
In s
2 4-
r ats</w>
exper ts</w>
besch lossen</w>
p ap
Re fer
g ert</w>
bu y</w>
competi tiveness</w>
car ds</w>
vorhan den</w>
Bec ause</w>
cre te</w>
ver an
wär en</w>
sich t
wol lte</w>
Veränder ungen</w>
konkre te</w>
in come</w>
t inu
s and
un be
Geor gi
sum mit</w>
moder n
A kti
ent weder</w>
M eter</w>
da gegen</w>
buil dings</w>
P ass
simp li
hou ses</w>
Men ge</w>
dest ro
S un
p ing</w>
ori z
Switz erland</w>
richti gen</w>
I R
win ter</w>
gen annt</w>
Me chan
so -
St and</w>
gra de</w>
actu al</w>
NAT O</w>
fre ue</w>
exclu sive</w>
dis h</w>
H igh</w>
Kli cken</w>
er leich
S cript</w>
Brus sels</w>
au er</w>
ho od</w>
ci ans</w>
con ten
P S
ali sm</w>
Leist ungen</w>
staat lichen</w>
sto red</w>
pri or</w>
spiel t</w>
v an
re ment</w>
lich em</w>
A ktion
prü fung</w>
9 .
Verein ten</w>
Dien ste</w>
a verage</w>
Kra ft
ne ar
v ul
f and</w>
benö tigt</w>
comb at</w>
sch rän
ag no
selec t</w>
t led</w>
Famili en
spiri t</w>
ge halten</w>
yp e</w>
u tili
seas on</w>
comp ati
am e
tol er
Bi o
Break fast</w>
kra ft
erfol gen</w>
Rats vor
M ut
An gaben</w>
Di g
fi xed</w>
Str ategi
Ein fluss</w>
mati c</w>
E ver
spee ch</w>
ga ve</w>
Vide o</w>
thin king</w>
Gar ten</w>
hr en</w>
spezi ell</w>
du ce</w>
gen ü
besu chen</w>
W ar</w>
C at
tig keiten</w>
datab ase</w>
Fir stly</w>
Tran sport</w>
Fre m
auth ority</w>
me etings</w>
j ene</w>
leist ung</w>
ut t
Schwei z</w>
L at
En viron
sth af
m ischen</w>
qu is</w>
dom in
N G
Land wir
rap h</w>
g ungen</w>
Groß britann
gewähr leistet</w>
All gem
condi tion</w>
Ein wander
se em</w>
ge geb
d in
an spru
I D</w>
ti vity</w>
ti ally</w>
vehic les</w>
displa y</w>
bili tät</w>
am b
ju di
durch aus</w>
Konz ept</w>
we ek
Po st
Geb ieten</w>
lig ten</w>
flexi bility</w>
An trag</w>
Arbei ten</w>
l eng
On ce</w>
coffe e</w>
pres ence</w>
H ier
I B
Ver bin
nat ur
Währ ung</w>
las h</w>
sto ck</w>
and ing</w>
mög liche</w>
M S</w>
f rau
Har mon
h a</w>
num bers</w>
H än
finanzi elle</w>
Indi a</w>
en han
Mo der
cu isine</w>
s in
aspec t</w>
B est</w>
pop ul
j et
tä glich</w>
differ ence</w>
Nation al
P s</w>
dar unter</w>
at ur</w>
Bei tritts
zäh len</w>
li o</w>
Inn en
openha gen</w>
orig in</w>
Mi ddle</w>
Tei le</w>
Aus gaben</w>
mach ines</w>
dan ger
Den noch</w>
2 ,
p sy
lok alen</w>
au ff
i ed</w>
Sk i
O T
ein gehen</w>
V ie
u ten</w>
grat u
Ver b
P C
Un abhängi
humanit arian</w>
F it
isti sche</w>
Res earch</w>
pro pose</w>
Zei traum</w>
W ich
easi er</w>
S ach
rich t
kt oren</w>
F -
bro ad
br auch</w>
ju d
S ehr</w>
Kat astrop
end or
at ta
ad o</w>
Th ir
Sp it
h ne</w>
ex pl
Terra sse</w>
wa it</w>
Sp a</w>
Bo ard</w>
confi gu
Ver gleich</w>
est ate</w>
Gu est</w>
sci ence</w>
Stellung nahme</w>
3 3</w>
ti se</w>
ha fte</w>
er stellen</w>
d ware</w>
am eter</w>
Mod ell</w>
wen igen</w>
inter es
zentr ale</w>
sti t
n y</w>
dar stellen</w>
Ein haltung</w>
ordin ary</w>
I ris
konzentri eren</w>
phra se</w>
er leben</w>
seri ously</w>
Kri eg
aim s</w>
peace ful</w>
avail ability</w>
N icht
fl ation</w>
ungs -</w>
perman ent</w>
man i
appe ars</w>
her unter
we gung</w>
re ise</w>
typ ical</w>
my self</w>
establish ment</w>
I G
Ar gu
st one</w>
Haus es</w>
Heraus forderung</w>
9 5</w>
E st
ester day</w>
antwor ten</w>
Enga gement</w>
f ach</w>
Ver y</w>
recom men
über prüfen</w>
we ak
gelei stet</w>
ad ul
angebo ten</w>
Seh ens
wa gen</w>
Kom fort</w>
absolu t</w>
zah lt</w>
A sia</w>
tä tig</w>
st abili
re servation</w>
f und</w>
deta il</w>
ho t</w>
D S
s y</w>
leist ungen</w>
in ts</w>
Program ms</w>
fu n</w>
ent stehen</w>
gesch ehen</w>
differ ences</w>
n ungen</w>
experi enced</w>
20 11</w>
saf e
gan g
li an</w>
schwieri g</w>
hi m
M L</w>
medi um-
Frühst ück
disku tieren</w>
ab ilities</w>
vern ünf
k am
For um</w>
u fen</w>
t old</w>
den noch</w>
6 -
be auf
Vor sitz
hab it
ogra phi
f ro
öff nen</w>
rene w
pre fer
pic ture</w>
medi c
O ut
Zwei fel</w>
Z eiten</w>
own ed</w>
w on
Zw eck</w>
eh t</w>
categ ories</w>
H is</w>
d uty</w>
practic es</w>
ö konom
G as
A chtung</w>
promot ing</w>
char ged</w>
r i</w>
produc ers</w>
un acceptable</w>
sch w
cl ari
P ic
isi erung</w>
Priv ate</w>
da cht</w>
Ein igung</w>
Dol lar</w>
ro man
hän gt</w>
Sch ön
erklär en</w>
implemen ting</w>
Her stellung</w>
wür dig
charac ter</w>
for get</w>
def ence</w>
tion ally</w>
th -
be comes</w>
alisi eren</w>
Zi vil
sa w</w>
zeu gen</w>
on y</w>
Po si
dor f</w>
em o
Eng li
vol u
Wor te</w>
care fully</w>
Pak et</w>
y e</w>
unterschie dliche</w>
Gleich zeitig</w>
in form</w>
at o</w>
end gül
Dru ck
gegen sei
con tr
off ici
verur s
ber icht</w>
B ru
Bei tritt</w>
j ur
fest stellen</w>
em bly</w>
Iris h</w>
Besu cher</w>
f a</w>
F onds</w>
s au
quali t
kor re
rec or
pen sion</w>
N um
balan ced</w>
Cze ch</w>
crimin al</w>
attemp t</w>
Febru ar</w>
unabhängi g</w>
con crete</w>
intro duce</w>
Kun st</w>
ein iger</w>
s lo
freu t</w>
recom mend</w>
es tim
Aspe kt</w>
reduc ing</w>
auf t</w>
sich ts
näch ste</w>
bre ak</w>
associ ated</w>
S E
un ten</w>
en su
sp ent</w>
ma ßen</w>
er ende</w>
ap par
For derungen</w>
übri gen</w>
veröffent licht</w>
t oren</w>
kun fts
fe el
auth or
at z
wa iting</w>
gew innen</w>
ven ue</w>
N ame</w>
in ci
x e</w>
star ke</w>
al d</w>
form ed</w>
des er
Auf nahme</w>
viel fäl
sti schen</w>
jo y</w>
Fil m</w>
con dem
wei ght</w>
ell s</w>
Re gel</w>
boo king</w>
refu ge
be hin
S ci
Komp et
De fin
0 s</w>
ern sthaf
adop tion</w>
ec ke</w>
dec lar
rä ume</w>
Prior itäten</w>
wach sen
St ellen</w>
er scheint</w>
Mad rid</w>
Downlo ad</w>
King dom</w>
gro unds</w>
ah ead</w>
SQ L</w>
stat ements</w>
cour ses</w>
lei ten</w>
Gol f</w>
G ran
9 8</w>
tz ent
happ ened</w>
g as
Gemein samen</w>
fizi ert</w>
Doku ment</w>
di a</w>
U l
Sal z
sat elli
hin gewiesen</w>
gelei tet</w>
impro vement</w>
G ri
im possible</w>
t un
pos t</w>
Sto ck
mod els</w>
f low</w>
ass es</w>
wir kt</w>
thre at</w>
est ed</w>
danger ous</w>
qu alität</w>
Belar us</w>
appro xim
any one</w>
cal cul
agen cies</w>
8 .
s i</w>
ph ase</w>
gest alten</w>
em als</w>
gewi cht</w>
pack ages</w>
b um</w>
an gesprochen</w>
Christi an</w>
9 9</w>
isch en
Acc ording</w>
Les ung</w>
ü nen</w>
advan ced</w>
arch i
Kon fer
Analy se</w>
er o
guarante es</w>
Or d
Au to</w>
A B
ack no
n utz
den k
Stat us</w>
mon etary</w>
w on</w>
c ore</w>
adv ance</w>
region alen</w>
Wis sen</w>
Re de</w>
ar ten</w>
b ahn</w>
dom estic</w>
Sor ge</w>
Mit te</w>
Lin ks</w>
tri p</w>
n ieder
R ein
k -
sha red</w>
s outh</w>
continu ed</w>
etz ung</w>
e .</w>
s timm
no ti
arri val</w>
Geschäfts ordnung</w>
M einer</w>
fol gende</w>
so- called</w>
Arbeits losigkeit</w>
stu dies</w>
betra chtet</w>
fü gt</w>
as yl
install ed</w>
E ffe
nam es</w>
er o</w>
s letter</w>
verfol gt</w>
gr ö
Gre at</w>
chan ging</w>
Dis krimin
sich erung</w>
ti s</w>
kulturel len</w>
Entwick lungen</w>
Ori gin
unterstütz e</w>
no on</w>
un fortunately</w>
spra ch
call ing</w>
str ong
angen eh
Ira k</w>
genu ine</w>
h ous
ein ger
Ko ordini
p us
low -
govern mental</w>
f ers</w>
un ge
t ter</w>
immedi ate</w>
inst ance</w>
Proble men</w>
se eing</w>
gesch rieben</w>
f ly</w>
w om
Sant a</w>
p es</w>
V I
empfeh len</w>
persön lich</w>
Nahr ungs
Stär kung</w>
Regel ungen</w>
d ank</w>
vi erung</w>
komp li
Rechn ung</w>
K rä
Ir land</w>
3 4</w>
em in
ter ra
Fern seh
sensi tive</w>
ill ing</w>
res ort</w>
be t</w>
pic tures</w>
car s</w>
T our</w>
ob tain</w>
A no
trä gen</w>
Au gen
Öster reich</w>
sec re
ausge wo
Pol and</w>
g utes</w>
fail ure</w>
keep ing</w>
ö st
R ou
Großbritann ien</w>
Viel zahl</w>
Kommunik ation</w>
R um
On line</w>
strong ly</w>
gegenwär tig</w>
O R</w>
wis hes</w>
de bt</w>
d an</w>
Ch am
Hinter grund</w>
hal tet</w>
b at
E very</w>
te u
ing ton</w>
consu mption</w>
woh ner</w>
lear ning</w>
Komp on
am ing</w>
Richt linien</w>
poli tics</w>
vor liegenden</w>
rela x</w>
key word</w>
sk i
geschütz t</w>
erforder lichen</w>
ra ise</w>
i erte</w>
Stre et</w>
W ün
umfas st</w>
combin ation</w>
Unter schie
ti erung</w>
fi z
co l</w>
w oo
prin t</w>
ff s</w>
v el</w>
pp er</w>
an lagen</w>
ein geführt</w>
evi dence</w>
ven ts</w>
profi tieren</w>
Ar ten</w>
ess or</w>
ein setzen</w>
s ale</w>
Griechen land</w>
y right</w>
tra ding</w>
lie be</w>
hal ten
pre -
pos sibilities</w>
il ing</w>
ständi gkeit</w>
k op
der ed</w>
ar ticle</w>
3 6</w>
g ure</w>
Überwach ung</w>
k aufen</w>
pass ed</w>
Prior ität</w>
Joh n</w>
vers al</w>
s ort</w>
Z ol
Pro duc
com ment</w>
un less</w>
positi v</w>
S port</w>
lie ben</w>
con tain</w>
Tra de</w>
würdig keiten</w>
garanti ert</w>
recogn ition</w>
h inter
regi stered</w>
fir e</w>
ausreich end</w>
ati schen</w>
elec ted</w>
attrac tive</w>
weiter er</w>
tru ly</w>
kein erlei</w>
samm lung</w>
ausge wäh
2 7
p unkte</w>
be aches</w>
Re li
cor respon
relax ing</w>
ta bel</w>
A M
devi ces</w>
t asks</w>
St or
G an
ut ed</w>
su che</w>
sign al</w>
S ur
Europe ans</w>
Ger icht
verk ehr
Ab end</w>
br ary</w>
ver lassen</w>
particip ate</w>
He alth</w>
be hand
aussch uss</w>
condi tioning</w>
ar m
fin ance</w>
Lo g
distri ct</w>
Partner schaft</w>
beha vi
Op en</w>
respec tive</w>
C er
Jav a
p h</w>
w all</w>
Mo un
C an</w>
s or</w>
th or
be haup
al lowing</w>
aufmerk sam</w>
sub si
pas st</w>
mit einander</w>
hand s</w>
F en
zäh lt</w>
grö ßer
ex ter
se ek</w>
K ab
Bewer tung</w>
col labor
inst all</w>
str onom
Jus tice</w>
Am bi
k ept</w>
f elt</w>
comple ted</w>
Ges ell
l es
führ er</w>
f are</w>
ö k
reli able</w>
ali sts</w>
d .
tele vision</w>
stei gen</w>
lü sse</w>
gegenwär tigen</w>
o re
lös ung</w>
IS O</w>
col or</w>
er hält</w>
defin ition</w>
Ele mente</w>
C ur
al ty</w>
Eis en
figu res</w>
Ver stän
eck -
op position</w>
führ ungen</w>
e f</w>
E T</w>
neu est
demokrati sche</w>
F inn
li e</w>
rele ased</w>
en er</w>
transl ation</w>
bre ite</w>
be glei
zufrie den</w>
or am
ent ran
L ast
- -</w>
comp la
ati n</w>
en ables</w>
J a</w>
ur gent</w>
Fu ß</w>
Fortsch ritt</w>
Verpflich tung</w>
c er</w>
an nen</w>
E- Fraktion</w>
tot ally</w>
c ts</w>
3 7</w>
ge zogen</w>
O pen
near by</w>
K er
ge gründet</w>
säm tliche</w>
Her steller</w>
Bedürf nisse</w>
um b
schi ed</w>
k n
or ders</w>
me ters</w>
but ton</w>
le ts</w>
u si
ges eh
ent y</w>
ei gn
G od</w>
pro to
grund sätz
Ange sichts</w>
Pf lan
clo ser</w>
Mi o.</w>
expen di
po l</w>
e ß</w>
iz ation</w>
sk ills</w>
komple tt</w>
et ten</w>
PH P</w>
Ges etz</w>
Eng land</w>
be ar</w>
Su ch</w>
Ano ther</w>
Universi tät</w>
win dow</w>
te sts</w>
him self</w>
be gan
ar i</w>
Ne vertheless</w>
Je der</w>
D P</w>
pl ying</w>
Ent wurf</w>
k oh
aussch usses</w>
Associ ation</w>
groß es</w>
asyl um</w>
absolu te</w>
tr enn
man age</w>
h aus
We ch
me l</w>
appoin ted</w>
meas u
ri ver</w>
member ship</w>
c lub</w>
zer stör
continu es</w>
T un
ma g
betei ligt</w>
vor aus
Er hö
ci ous</w>
Sonn en
LA N</w>
H ab
fi gh
Vi enn
C op
go sla
fe der
199 4</w>
elec tion</w>
For men</w>
Betrie b</w>
inter face</w>
W es
krä fte</w>
A ir</w>
Sehens würdigkeiten</w>
inten ance</w>
M un
Afri can</w>
he ad
g barkeit</w>
P rop
gro ß</w>
tic les</w>
spezi elle</w>
S til</w>
W ür
bek ann
W ander
li ter
garanti eren</w>
Afri ka</w>
convinc ed</w>
fir m</w>
in surance</w>
Mom ent</w>
umfas sende</w>
Entschließungs antrag</w>
Mittel n</w>
Verk ehr</w>
m icro
EC U</w>
territ ory</w>
tain ment</w>
nation aler</w>
acces sible</w>
exerc ise</w>
Gener al
B M
conclu sions</w>
b as
Koh ä
ver tei
ließ en</w>
Pla yer</w>
Erklär ungen</w>
wel t</w>
i .
einfa che</w>
di sch
W ill
Besch reibung</w>
größ eren</w>
offen sichtlich</w>
Ar e</w>
al ter
Maß e</w>
sur face</w>
zi gen</w>
Nich trau
stor age</w>
führ enden</w>
econom ies</w>
up date</w>
bi en</w>
besitz t</w>
Sin n</w>
wün sche</w>
v es
wesent lichen</w>
a el</w>
T an
Jahrhunder ts</w>
descri bed</w>
ac king</w>
In n</w>
w esen</w>
zu gän
mitt l
surro unding</w>
nö tig</w>
Ab en
sex u
län ger</w>
fin de</w>
Kommission s
enor mous</w>
Mob ili
le m</w>
combin ed</w>
architec ture</w>
anci ent</w>
Industri e
20 13</w>
religi ous</w>
li ghts</w>
contro ls</w>
Ab satz</w>
t ür
C ast
ver häl
il lu
ber eiten</w>
Rezep tion</w>
Brü ssel</w>
6 5</w>
er tes</w>
eng li
stru ktur
Ne ther
ne -
Agent ur</w>
pro spec
Nach t</w>
6 00</w>
announ ced</w>
M ilit
sug ges
Prin zip</w>
Kir che</w>
statt finden</w>
ff er</w>
haup ts
boo ks</w>
av y</w>
p ed</w>
einf lus
gran ted</w>
über all</w>
hon ourable</w>
dis pos
Ver tri
n om
cour t</w>
beg lück
Jahr zeh
bar s</w>
pay ments</w>
Stra ßen
4 9</w>
be wahr
Leist ung</w>
de vice</w>
da d</w>
un able</w>
sol cher</w>
ex port</w>
b ath</w>
pre is</w>
mittel s</w>
Pak istan</w>
d é
neh mer
I V</w>
kan ischen</w>
R oh
great est</w>
commit ments</w>
tex tu
s sen
re mind</w>
occu p
dan ach</w>
Com pu
zi erung</w>
n ar
&apos; re</w>
righ tly</w>
No te</w>
lo ad</w>
kosten los</w>
exten ded</w>
ali zation</w>
A G
de te
ambi tious</w>
R ä
Kon tin
Cu st
ch ine
O li
spar tn
s ni
gui de</w>
fil l</w>
fe ar</w>
H ü
beginn t</w>
Ide en</w>
t aus
bestä tigt</w>
Verhäl tnis</w>
w asser
expen sive</w>
B -
Kan di
mo ving</w>
her gestellt</w>
Pol en</w>
Grün de</w>
r ying</w>
gram mati
wri te</w>
kt ors</w>
individu als</w>
f assung</w>
Ap parte
con ci
ar en</w>
ü ben</w>
S qu
F eu
rech tlichen</w>
bein haltet</w>
organ ised</w>
establish ing</w>
desi re</w>
über tragen</w>
Ge wi
Binnen mark
Con tro
sor gt</w>
M ann</w>
L ast</w>
K ris
ob viously</w>
candi date</w>
c m</w>
Größ e</w>
p el
g ä
ein ander
holi days</w>
jähri gen</w>
s .
internation aler</w>
institu tion</w>
d ul
br and</w>
ben ach
ad vice</w>
re chen</w>
comp ared</w>
posi te</w>
Betei ligung</w>
Barro so</w>
Glob alisierung</w>
monit or</w>
adverti sing</w>
Um fang</w>
Haushal tsp
son st</w>
Tre ffen</w>
fi l</w>
Mär kte</w>
on e-
ma li
leist ungs
H ome</w>
lea der</w>
T en
as king</w>
su n</w>
En d
sh es</w>
Turk ish</w>
on to</w>
lä gen</w>
Unter kunft</w>
g an</w>
all -
K i
v e-
techn ik</w>
re isen</w>
gel ungen</w>
M ari
Empfeh lungen</w>
vali d</w>
la p
sp ending</w>
pi ece</w>
te dly</w>
furnis hed</w>
S eine</w>
V -
ini tial</w>
A ktionen</w>
wh ere
perspec tive</w>
gra ph
dise ase</w>
ma gn
ver letz
parag raph</w>
Kompromis s</w>
swi t
bi eter</w>
aus führ
inform iert</w>
E astern</w>
k tes</w>
ordn ungs
8 -
a dem
er er</w>
ast s</w>
be achten</w>
G ü
mark ed</w>
dedic ated</w>
wen det</w>
entsp rechen</w>
Qu ar
ma r</w>
k ilom
di ty</w>
contr ary</w>
ma g</w>
g rie
fail ed</w>
D s</w>
enti tled</w>
fac tors</w>
ab gel
th i
bl ack</w>
J ac
B ab
8 00</w>
äst inen
rail way</w>
g ate</w>
ro ll
ab geschlossen</w>
pri vi
E hr
mi ddle</w>
Mis s
us ual</w>
igran ts</w>
ak t</w>
Nether lands</w>
zusätz lich</w>
ent sch
Techn ik</w>
bin ding</w>
Geb iete</w>
O L
co ast</w>
on ed</w>
conten ts</w>
ein verstanden</w>
sy mp
smo king</w>
eng ine</w>
Reg ulation</w>
Flexi bilität</w>
v it
achie ving</w>
lim its</w>
franzö sischen</w>
aller y</w>
regi ster</w>
in spec
M es
Tra dition</w>
Stad tzent
str on
tar gets</w>
spezi ellen</w>
Pri me</w>
colleag ue</w>
A L</w>
re is
medi zin
lux ury</w>
f our
Java Script</w>
sequ ently</w>
-S ter
w ettbewer
oblig ations</w>
Man ager</w>
sorg fäl
5 5</w>
Contro l</w>
sion -
re den</w>
lä ss
back ground</w>
rou te</w>
zah lung</w>
claim s</w>
Bei hilfen</w>
quali fizi
dien st</w>
3 8</w>
so bald</w>
ho st</w>
campa ign</w>
Wor ten</w>
n ennen</w>
recommend ations</w>
eti c</w>
3 9</w>
Grund satz</w>
ing u
gen des</w>
medium- sized</w>
conveni ent</w>
H -
Dat a</w>
il l</w>
ge gangen</w>
A P
mem ory</w>
Nichtrau cher
nei ther</w>
Ein druck</w>
w est</w>
ol der</w>
en ess</w>
Fra ktionen</w>
d den</w>
Z ü
C af
attrac tions</w>
J our
s co
contain ed</w>
Ver letz
C S
n ation</w>
Wel che</w>
fac es</w>
expendi ture</w>
ris es</w>
g uter</w>
Musi k
wä ch
tri ed</w>
out come</w>
m illi
la id</w>
rei bt</w>
plat form</w>
mot or
mittel t</w>
K aff
4 2</w>
perfec tly</w>
con sen
erforder t</w>
betra chten</w>
Res ort</w>
cho sen</w>
Op tion</w>
D ut
st ood</w>
pre vention</w>
dar aus</w>
An teil</w>
geschi eht</w>
belie b
att ack</w>
bru ch</w>
bal con
fähi g</w>
ran gi
Bil dungs
Metho de</w>
or g</w>
ma intenance</w>
ate ver</w>
Schlü ssel
ge öffnet</w>
do s</w>
M use
Europä er</w>
peri o
be zogen</w>
Hin weis</w>
nehm ern</w>
geb il
dr än
mö gen</w>
Fot os</w>
vorgeschla genen</w>
f light</w>
Cas ino</w>
mä chti
situ ations</w>
lin ge</w>
S .
zu folge</w>
sch ir
loo d</w>
Frühstück s
Frie dens
Fore ign</w>
10 .
a gen</w>
Mitglie dern</w>
Y et</w>
neigh bour
D on
un to</w>
st ations</w>
Ereig nisse</w>
m ly</w>
wirtschaf ts
betro ffen</w>
squ are</w>
R ules</w>
rel ativ</w>
exist ence</w>
c au
wan del</w>
const antly</w>
al a</w>
w ind</w>
sich ert</w>
promo tion</w>
Auf bau</w>
L im
y esterday</w>
Th us</w>
ec kt</w>
ac qui
Ni veau</w>
V it
An n
mechan ism</w>
verl oren</w>
su r</w>
Sch au
Mot or
continu ing</w>
Pati enten</w>
ver breit
comp li
T R
Verstän dnis</w>
sch la
ges chn
e quality</w>
erhö ht</w>
Al ban
betro ffenen</w>
advanta ges</w>
Ham burg</w>
par a</w>
g un
ei st
Stu dio</w>
tig ten</w>
Gr unde</w>
0 8</w>
emplo yed</w>
Re gu
stark en</w>
allgem eine</w>
beau ty</w>
An lagen</w>
ge stellten</w>
Wir kung</w>
m useum</w>
Voraus setzungen</w>
fest gestellt</w>
alle l</w>
Cro ati
Aus sicht</w>
success fully</w>
regi stri
agen cy</w>
be st
n d</w>
G eg
Bei m</w>
z y
außer ord
Spra ch
Umwel tsch
La ke</w>
Kom bin
struktu ri
pp e</w>
em erg
per c
Wieder auf
lan gt</w>
Klima anlage</w>
str ö
Fun da
weap ons</w>
Kri tik</w>
in struc
bar ri
vehic le</w>
sib ly</w>
Ju gen
Ferien woh
w ater
Min utes</w>
0 ,
ent eil</w>
Reli gi
B ou
rel ess</w>
T ari
P eti
Alt stadt</w>
sequ ent</w>
ar di
ro l</w>
inter vention</w>
Min dest
gewün sch
To des
rä ger</w>
pe ti
Sum mit</w>
sto ff</w>
f ach
Gesetz gebung</w>
de ca
zu vor</w>
f it</w>
Ba si
te -
ob vious</w>
dis cover</w>
gen er</w>
V e
0 9</w>
klu sive</w>
Gre ek</w>
sel l</w>
Ver mitt
Bot schaft</w>
p utting</w>
iel t</w>
conclu de</w>
S and
p assung</w>
Qu es
te sting</w>
inten sive</w>
deli ver</w>
Weiter e</w>
Th ose</w>
p ak
ali smus</w>
ac compan
rei ber</w>
and ed</w>
haupts ächlich</w>
cor porate</w>
kra ft</w>
Eff izi
quali fied</w>
nachhal tige</w>
inter ven
di mension</w>
tä u
un it</w>
on ia</w>
S ha
Prü fung</w>
fac tor</w>
bil d</w>
An y</w>
tex ts</w>
Fo undation</w>
zieh t</w>
nation s</w>
organiz ation</w>
poin ted</w>
Vienn a</w>
Vertra gs
Di mension</w>
Be darf</w>
er ung
multi later
erh äl
Re siden
ul l</w>
gesell schaften</w>
Kon troll
Deut sche</w>
fic ations</w>
ch mals</w>
stra ße</w>
r ated</w>
kann st</w>
do c
B is</w>
9 6</w>
Ch amp
bro wser</w>
vor an
bri tischen</w>
consi stent</w>
Risi ken</w>
freund liche</w>
Re alität</w>
Nutz er</w>
Meer es
I A</w>
ar m</w>
1 1.
plann ed</w>
gel assen</w>
wach st
bet t</w>
approxim ately</w>
Ge währ
ro m
cap able</w>
ühr en</w>
k el</w>
Stra f
man chmal</w>
Über zeu
m ün
Indi en</w>
acc ess
k la
Zah lungs
K ro
expres sion</w>
unter schei
some one</w>
go als</w>
ta g
äu fer</w>
produ ktion</w>
f illed</w>
ali sed</w>
li sted</w>
Geg enteil</w>
Bo th</w>
speci es</w>
regel n</w>
comp liance</w>
caus es</w>
Ph ase</w>
tri fft</w>
tou ch</w>
Unternehmen s
al em</w>
regi stration</w>
E F
respon sibilities</w>
persön liche</w>
Pal ace</w>
sub scri
Tei len</w>
0 7</w>
äl fte</w>
un ch</w>
ver sions</w>
í a</w>
Über prüfung</w>
ktiv ität</w>
beru f
sh ing</w>
evalu ation</w>
bring ing</w>
gri ffe</w>
ei m
Risi ko</w>
vul ner
Gegen satz</w>
A ktu
grenz überschreit
Vor teil</w>
D ep
Agen cy</w>
In seln</w>
9 7</w>
gri ffen</w>
Koordini erung</w>
Rei se</w>
tre ated</w>
nit ure</w>
indepen dence</w>
Sch ri
en dum</w>
Feder al</w>
Austri an</w>
regel mäßig</w>
han del</w>
er r
moun tains</w>
E li
u .
consi sts</w>
sm aller</w>
lei tung</w>
isch em</w>
exten d</w>
comm unities</w>
Mon at</w>
posi t</w>
substan tial</w>
M ü
Far b
sta ke</w>
al t
Diskrimin ierung</w>
bed room</w>
discus sing</w>
Dien st</w>
über ra
Environ ment</w>
mer ely</w>
einzi gen</w>
1 st</w>
es sions</w>
Proje kt
exhi bition</w>
ide ale</w>
u .</w>
fis cal</w>
e chte</w>
bek annten</w>
lau t</w>
Be obach
U .
E di
sti sche</w>
re ck
un zu
Pra kti
ens wert</w>
sp aces</w>
mü s
Hoff nung</w>
D y
wi der</w>
surro unded</w>
li ste</w>
la ke</w>
nor th</w>
see king</w>
Er hol
por ting</w>
on s
tra gs</w>
dispos al</w>
ad o
Sch nit
Mich ael</w>
Mark et</w>
Er war
Zah len</w>
govern ance</w>
ag ue</w>
Nach dem</w>
besser en</w>
C ard</w>
del ay</w>
Erhö hung</w>
organis ationen</w>
m 2</w>
categ ory</w>
wor fen</w>
t ab
fäl len</w>
mas sive</w>
addres sed</w>
Swe den</w>
hi elt</w>
guarante ed</w>
Palestini an</w>
tz ei
satelli te</w>
fas hi
er as</w>
foo t</w>
requ ested</w>
re move</w>
jour n
Liber alisierung</w>
Be ach</w>
Angebo te</w>
it age</w>
el a</w>
cla im</w>
schn eller</w>
ex plan
Z immern</w>
Institu te</w>
be wegen</w>
mei st</w>
König reich</w>
th an
le ads</w>
disku tiert</w>
M ak
äu men</w>
phot os</w>
ir s</w>
gel aden</w>
ch urch</w>
G ent
deut sche</w>
G U
strength ening</w>
fi f
beschäf tigt</w>
zip ien</w>
Ex c
St art</w>
d ance</w>
S I
Eben so</w>
phy si
gen annte</w>
F lo
b würdi
N ice</w>
si ed
bu re
St atisti
Er de</w>
f ts</w>
Bestand teil</w>
füh len</w>
exam ples</w>
se g
E ar
Det ails</w>
fahr ens</w>
dau er
R ob
Nieder lan
Loc ated</w>
4 4</w>
an bieten</w>
t an</w>
trans fer
sur vi
sicher stellen</w>
re spe
big gest</w>
O ther</w>
C oo
Arch i
w ann</w>
phy sical</w>
Sch u
Ban ken</w>
m ass</w>
jün gsten</w>
Euro -
Da vi
as ing</w>
voll kommen</w>
stoff en</w>
ser n</w>
es th
Eink aufs
ent gegen
event u
Plat t
N a
lie gende</w>
Fäl le</w>
de alt</w>
Metho den</w>
ri sten</w>
A ss
wichti gste</w>
wel chen</w>
leh nen</w>
g ere</w>
er es</w>
ob ject</w>
sch we
reagi eren</w>
loo ks</w>
her zlich</w>
199 2</w>
techn ological</w>
out standing</w>
reco very</w>
sp unkt</w>
prakti sch</w>
ö der
ar ms</w>
T emp
R et
T al
resul ting</w>
gef örder
e en</w>
la gs</w>
mo de</w>
aus län
H ist
k el
H on
tür k
dou b
blo ck</w>
Aktion sp
serv ations</w>
ur ge</w>
um welt
Ratsprä sident</w>
dynam ic</w>
K lar
determin ed</w>
be zeichnet</w>
Sch war
ehr t</w>
einzel ne</w>
K M
o f-
expla in</w>
i. e.</w>
gesch ä
j ah
fra gt</w>
politi sch</w>
zurück zu
spezif ischen</w>
s timmt</w>
hö h
gesp eich
ch -
R ent
gu ard</w>
eri a</w>
de fic
S S
rap id</w>
nah m</w>
ur s
siden ten</w>
For mat</w>
h l
R ome</w>
Gol f
Tit el</w>
ra y</w>
dist inc
Ti ere</w>
A S</w>
Mitglied s
W at
win den</w>
mit glie
ein erseits</w>
Unterschie de</w>
zuneh men
D ad
é e</w>
Gu i
Gener ation</w>
Ö l
pati ents</w>
Fir men</w>
ö se</w>
no tice</w>
e ed</w>
E ri
dig ungs
ger ufen</w>
de ep</w>
gewäh lt</w>
fer tigt</w>
can cell
a ther</w>
6 4</w>
spre ad</w>
li ability</w>
j ungen</w>
Stru ktur</w>
ra il</w>
fu el</w>
Städ te</w>
Hol z
sam er</w>
schö n</w>
particip ants</w>
gi cal</w>
du s</w>
wle d
ok ed</w>
wo durch</w>
t rop
I II</w>
wä s
Doku mente</w>
n icht
consen sus</w>
br ings</w>
weiter es</w>
th eit</w>
richt linie</w>
Tim e</w>
Far ben</w>
sei tens</w>
no chmals</w>
P ool</w>
d licher</w>
läu fi
Medi a</w>
Is land</w>
An passung</w>
st am
Bei fall</w>
spezif ische</w>
gel y</w>
Ch em
us s
dri ving</w>
f ein
Veranstal tungen</w>
län dlichen</w>
L atin</w>
pre viously</w>
ro krati
a ge
akzep tiert</w>
so ver
un den
un anim
optim al</w>
kon ta
li ation</w>
frü her</w>
Infra struktur</w>
industri es</w>
Vorberei tung</w>
r t</w>
Bo sni
vi lla</w>
ver z
St ein
Th anks</w>
no ise</w>
grund lage</w>
O M
to s</w>
S hi
sch li
tion ary</w>
tim ately</w>
res s
Klima wandel</w>
cop y</w>
Ver öffent
prim arily</w>
mis s
e ar</w>
B li
qu ick</w>
dam als</w>
Ru he</w>
Formu lar</w>
sol e</w>
positi ven</w>
consul tation</w>
compet ence</w>
. de</w>
Unabhängi gkeit</w>
4 1</w>
gesch lossen
A tom
ha m</w>
affec t</w>
bezieh t</w>
En ergy</w>
ör per
ver w
ste el</w>
län e</w>
War en</w>
W inter
G ep
incor por
G az
speak ers</w>
Um ständen</w>
tel ef
gan gs</w>
V om</w>
R ad
Fi re
Lauf e</w>
se ven</w>
Democ rats</w>
bet ont</w>
att acks</w>
E G</w>
tal ks</w>
H älfte</w>
Verfü gbarkeit</w>
ri gi
prep are</w>
manufactur ing</w>
arti sts</w>
Charak ter</w>
Aut o
T -
compati ble</w>
Materi al</w>
Gesetz e</w>
lie fern</w>
ing er</w>
S ar
Auf grund</w>
bu tions</w>
pr en
berei che</w>
19 .</w>
stell ungs
kin ds</w>
abhängi g</w>
an geht</w>
conduc t</w>
s we
ge arbeitet</w>
exp an
enter ed</w>
A V
sp eich
ber n</w>
ini ert</w>
Is lam
gl ass</w>
j unge</w>
f ting</w>
prim ary</w>
landscap e</w>
air craft</w>
Tro tz</w>
ne arly</w>
Jap an
ser ving</w>
Über nach
über nommen</w>
refuge es</w>
grie ch
Del egation</w>
Dad urch</w>
lei den</w>
Diskus sionen</w>
wer ten</w>
pleas ure</w>
p et
A P</w>
c ast</w>
ö sen</w>
gewis se</w>
def ault</w>
Wil len</w>
Bi bli
ver m
rep ly</w>
f i</w>
mechanis ms</w>
invest ments</w>
ag ne</w>
impro vements</w>
ein richtungen</w>
be fassen</w>
jähr lich</w>
B us</w>
Ba y</w>
Gä sten</w>
Ber ücksichti
multi ple</w>
unter nommen</w>
ten de</w>
valu able</w>
n on
wa chen</w>
En joy</w>
de ad
comp u
sprü che</w>
comp lic
Netz werk</w>
ra dio</w>
kün st
komp et
de h
präsen tiert</w>
Be denken</w>
san ctions</w>
art a</w>
M erk
Überein kommen</w>
stat ten</w>
N L</w>
zu gleich</w>
erneu er
L ink</w>
An liegen</w>
r ö
li t</w>
D er
g one</w>
accoun ts</w>
bed rooms</w>
and o</w>
Be fore</w>
tra gs
hol en</w>
gh ted</w>
ali täten</w>
ur g
derzei tigen</w>
requ ests</w>
en zi
Män ner</w>
re ve
Kol lege</w>
di men
Wor k
Su ite</w>
zi em
th ers</w>
recogn ise</w>
em an
bri dge</w>
Telef on</w>
strateg ie</w>
si mul
regre t</w>
tion ality</w>
be u
en g</w>
Grund rechte</w>
web sites</w>
trei ben</w>
ben e
represent ative</w>
f abri
bequ em</w>
associ ation</w>
ari um</w>
controll ed</w>
con soli
Politik er</w>
E D
scho ols</w>
L ou
Aus land</w>
or al</w>
ab sichti
W C</w>
Au th
h l</w>
Su ch
recommen ded</w>
ori um</w>
Rum än
st ol
pl ause</w>
fol gerungen</w>
zu verlässi
there by</w>
sk in</w>
appro val</w>
9 .</w>
schau en</w>
del egation</w>
fore st</w>
Vi elleicht</w>
Asy l
kürz lich</w>
p .m.</w>
be handeln</w>
mut ual</w>
wichti ges</w>
m ale</w>
gest ern</w>
Land schaft</w>
Ant worten</w>
x en</w>
TH E</w>
ver langen</w>
gi r
au sh
stra i
f esti
C y
will ing</w>
enn ung</w>
ander erseits</w>
es sive</w>
Squ are</w>
lo ts</w>
ti tle</w>
es -
Schlus s
Ever y
host els</w>
region ale</w>
ba siert</w>
Inter nationalen</w>
st reichen</w>
Schi ff
tradition ellen</w>
deliver ed</w>
am ong
m ol
ir y</w>
re d
Rom ania</w>
Win ter</w>
ig es</w>
for um</w>
Pro di</w>
Ord nung</w>
h oriz
der i
0 5</w>
mit tag</w>
er geben</w>
L icht</w>
Dut ch</w>
among st</w>
San ktionen</w>
pp en</w>
gol f</w>
Grund sätze</w>
sp a</w>
Voraus setzung</w>
verstär kt</w>
Stadtzent rum</w>
Landwir te</w>
Apart ment</w>
4 3</w>
Hand el
Constitu tion</w>
F lä
t ment</w>
ho l</w>
Host el
ver lieren</w>
ã o</w>
konkre ten</w>
emphasi se</w>
betre ffen</w>
oblig ation</w>
ko ordini
che ap</w>
Des pite</w>
multi -
k ehr</w>
hän gen</w>
4 7</w>
P ro</w>
Comp any</w>
fru it</w>
M ehr</w>
form ation</w>
199 0</w>
sub stances</w>
n un
t ter
r ul
en en
w an</w>
servi ert</w>
priv acy</w>
high light</w>
dru gs</w>
Ro yal</w>
den den</w>
op posite</w>
C ul
Strategi en</w>
zeu g
regel mäß
manufactur ers</w>
Haupt stadt</w>
Teil nehmer</w>
sol ve</w>
or ca</w>
ti le</w>
Eink lang</w>
er ie</w>
I l
extre me</w>
bür ger
al p
e ding</w>
men ted</w>
compens ation</w>
glob ale</w>
A .</w>
v ar
represent ed</w>
nah me
S amm
E P
we gs</w>
199 3</w>
nah e
er ror</w>
comp ly</w>
Ru le</w>
P aper</w>
Al liance</w>
Ex press</w>
C E</w>
mo ved</w>
St unde</w>
Sup port</w>
Sch äden</w>
Gr enze</w>
deca des</w>
b om
Leit linien</w>
poten zi
an erkannt</w>
Pro vin
feel ing</w>
d ritten</w>
B ack
cross- border</w>
Berücksichti gung</w>
vi sible</w>
con temporary</w>
behör den</w>
Bahn hof</w>
dic t
so weit</w>
k einer</w>
R am
n den</w>
d ler</w>
Tem perat
2 50</w>
te es</w>
leng th</w>
k unden</w>
berühm ten</w>
Zu stand</w>
Zu griff</w>
Sch n
S D
s n
W aff
psy ch
ab sch
F estival</w>
Re du
An fragen</w>
identi ty</w>
P eter</w>
wieder um</w>
Maß nahme</w>
to m</w>
av e
resol ve</w>
Teil nahme</w>
par la
began n</w>
vorsch lag</w>
Br enn
re place</w>
ah me</w>
4 6</w>
per s</w>
mel dung</w>
ü r</w>
w- how</w>
bu chen</w>
lin ed</w>
help ing</w>
flü ge</w>
fac ed</w>
pa ir</w>
An lage</w>
sub -
Schen gen</w>
at titude</w>
Kom ple
la h</w>
T I
Er wachsen
J er
M ein</w>
B is
frau d</w>
Sü den</w>
K unde</w>
ur ban</w>
bil det</w>
v a
sc lub</w>
phot ograph
höch ste</w>
deci sion-
ou l
exist s</w>
sou thern</w>
ogra f
Untersuch ung</w>
kno ws</w>
co vers</w>
Fischer ei</w>
Effizi enz</w>
present ation</w>
min e</w>
Stand ard
zi elt</w>
be zug</w>
Sy ri
be einflus
Bra zi
di verse</w>
av es</w>
Ver träge</w>
Sat elli
rejec ted</w>
Ber lin
om as</w>
Ge fühl</w>
Be griff</w>
Ale x
umfas senden</w>
künf tig</w>
fin ding</w>
der ship</w>
X -
spra chen</w>
r uns</w>
lich ten</w>
l st</w>
occ ur
T aus
h ing</w>
exten sion</w>
m -
bei zu
Wirtschafts -</w>
Bed ro
ser vers</w>
pe op
Per spe
ak tive</w>
F ut
ta ste</w>
na vi
Mein ungs
3 .</w>
ent ing</w>
ati sche</w>
ann e</w>
Freu de</w>
Ko sten
Hostel sclub</w>
Saf ety</w>
bes or
Gen ehm
viel mehr</w>
tro tzdem</w>
legi tim
Ver such</w>
signific antly</w>
ob st
itä ts
Be sitz
li sten
graphi c</w>
dest ination</w>
Minist ers</w>
Aut ob
Mar tin</w>
Ma il
Fre unde</w>
r auch</w>
renew able</w>
el -
bure au
Daten bank</w>
wech sel
di um</w>
G lück
mean ing</w>
0 er</w>
ser s</w>
bezieh ung</w>
tur ning</w>
tra gung</w>
la w
IN G</w>
8 5</w>
Fern er</w>
ar ticles</w>
Publi k
ung er</w>
suff ering</w>
hil ft</w>
exc ept</w>
E AD
komm erzi
hel ps</w>
Reak tion</w>
heb ung</w>
Defin ition</w>
be ob
cri ption</w>
dien ste</w>
z -
ta il</w>
depen dent</w>
d al
arran gements</w>
T wo</w>
PD F</w>
A gri
rel atively</w>
oper ators</w>
don e
angem essen</w>
L eu
In nen</w>
empha sis</w>
at a</w>
tur ing</w>
W ur
z y</w>
ent lichen</w>
loc ations</w>
ati es</w>
v als</w>
Finan cial</w>
ver änder
ac ting</w>
Regi stri
ä ck
genau so</w>
dis covered</w>
appreci ate</w>
Kombin ation</w>
ver sorgung</w>
K ilom
Di alo
form u
figh ting</w>
fi cial</w>
char ming</w>
Ser ie</w>
ziem lich</w>
Eigen schaften</w>
wer fen</w>
breit ung</w>
L au
un its</w>
beauf trag
G B</w>
sha pe</w>
m ur
Pla za</w>
ch ann
Allgem einen</w>
hab er</w>
pre mi
it ely</w>
R -
Boo k</w>
ein geb
Ko rea</w>
0 2</w>
nam ed</w>
Sc ot
Agrar politik</w>
tre es</w>
sa v
pl en
tro u
son sti
Hil fs
direc tives</w>
Stu die</w>
v ous</w>
Ver brechen</w>
eng agi
ell ed</w>
bes ei
ho her</w>
Lie be</w>
ran k</w>
g ü
recogn ised</w>
man gel
ari en</w>
Kon zep
vor geseh
stre ben</w>
appe al</w>
CO 2</w>
person ally</w>
ori a</w>
d inner</w>
Pu er
instal liert</w>
A dri
exper tise</w>
Kon sequ
Aus gang
Völ ker</w>
U se</w>
par allel</w>
mo bility</w>
ne ut
kl einer</w>
T ie
do ku
gi e
di r</w>
W an
tax es</w>
ev a</w>
verb un
auth or</w>
G ali
sol d</w>
Kar ten</w>
ruhi gen</w>
lat ter</w>
Par ti
ff er
Char ter</w>
B ir
acc ur
er in</w>
spo t</w>
inten tion</w>
hö here</w>
steu er
ec es</w>
co her
wesent liche</w>
ausge stat
applic able</w>
prof it</w>
cl ing</w>
freund lich</w>
disa ster</w>
bli n</w>
Mus li
gesp ielt</w>
F T
Bade zimmer</w>
institution ellen</w>
hand ling</w>
begr ün
assi st</w>
ve get
ra d</w>
experi ences</w>
kün fte</w>
zusätz lichen</w>
ro o
Op tim
sei en</w>
natur ally</w>
bo at</w>
Cham ber</w>
lo g</w>
fur niture</w>
Spiel e</w>
C lu
2 1.</w>
ep age</w>
wn s</w>
g al
Sch aden</w>
stä d
j ahr
W here</w>
For t
si eben</w>
r é
dan ger</w>
I P
jähri ge</w>
disch arge</w>
const ant</w>
j emand</w>
ini ons</w>
dat en
br e</w>
bur den</w>
Kör per</w>
D A</w>
0 3</w>
comb ating</w>
Hin der
u ung</w>
ni emand</w>
3 D</w>
produ kte</w>
mom ent
heal thy</w>
Fähi gkeit</w>
t on
ef s</w>
we alth</w>
happ ens</w>
engine ering</w>
construc tive</w>
L ob
0 6</w>
temperat ure</w>
f es</w>
Ta ke</w>
Gei st</w>
Fo to</w>
schn ell
Swe dish</w>
P ack
sch war
m ari
Ta i
zw an
will kommen</w>
pro of</w>
invol ving</w>
sen s</w>
ern st</w>
Be dien
A qu
schätz en</w>
Wh ite</w>
C ho
Verbesser ungen</w>
streng th</w>
ph en
enth al
cent res</w>
Ju gend
S hop
automati c</w>
aff airs</w>
schwieri gen</w>
Mi kro
expec tations</w>
O hne</w>
20 .</w>
eh nt</w>
interes siert</w>
Unternehmen s</w>
herr scht</w>
Führ ung</w>
geförder t</w>
gr enzen</w>
L etz
A N</w>
Geb ur
Be wegung</w>
c ab
O m
trä chti
am tier
whi lst</w>
u d</w>
schließ t</w>
Nor men</w>
qu ote</w>
kar ten</w>
St off
traff i
pres sion</w>
produc ing</w>
Schwe den</w>
pro gres
a da
fi ci
b ag
and -
wes halb</w>
akti vieren</w>
V ia</w>
Glob al</w>
sat lan
c ot
Sho p</w>
Got t</w>
laun ched</w>
fant astic</w>
sug gest</w>
enti al</w>
ti l
dise ases</w>
Er kenn
ak es</w>
Wo chen
mensch lichen</w>
lei sch</w>
west ern</w>
ver st
civi li
t ours</w>
Prü f
li ers</w>
pol lu
b our</w>
M em
windi gkeit</w>
Kohä sions
A U
ra pi
pre is
ol a</w>
ra sch</w>
objec ts</w>
ga z
em ed</w>
Ver halten</w>
G a
tu t</w>
re serve</w>
ch em</w>
protec ting</w>
p en</w>
dra wing</w>
di shes</w>
te en</w>
inf o</w>
c af
beg onnen</w>
Rau m
oo k</w>
zweifel los</w>
it a</w>
bil dungs
au dio</w>
re v
Kü ste</w>
Fran c
F as
Ent la
C O</w>
Anwen dungs
Dienstleist ungs
remo ved</w>
men ts
mand ate</w>
ver ändert</w>
Materi alien</w>
tru th</w>
in ary</w>
drück en</w>
d ining</w>
op posed</w>
k ern</w>
erhäl tlich</w>
Wel come</w>
lo vely</w>
refle ct</w>
confir med</w>
G ood</w>
ver anst
m o</w>
Ak te
Ab sicht</w>
vis u
ein s</w>
ci pl
Bes or
z ell
nä her</w>
obst ac
Tag ung</w>
ra tions</w>
Entschei dungs
Be fu
happ ening</w>
eigen es</w>
Prof ession
mean ing
exclu sively</w>
ti z</w>
her aus</w>
K ann</w>
feh l
Sch ule</w>
M aria</w>
ehemali gen</w>
Ratsvor sitz</w>
passen gers</w>
ung ser
Auf trag</w>
verk ehrs
aut onom
and els
Un gleich
parla mentar
US S</w>
Ge danken</w>
La dies</w>
Strateg y</w>
K auf
Empfeh lung</w>
histor ische</w>
wissen schaftlichen</w>
pass word</w>
ma ß</w>
es day</w>
Kon trol
besitz en</w>
mär kte</w>
k ali
Region al
Nor den</w>
dra mati
7 00</w>
12 0</w>
Ar gent
grundle genden</w>
cou ple</w>
Pau l</w>
mel den</w>
Web sites</w>
Sch ü
re ds</w>
Gent oo</w>
stri c
pro file</w>
b ing</w>
Entwicklungs ländern</w>
Ein stellung</w>
ob je
forder e</w>
Bei spiele</w>
sk y</w>
K y
D ort</w>
fi gure</w>
decor ated</w>
B at
ück en</w>
ti ken</w>
Rech ts</w>
GN U</w>
ma ster</w>
ob tained</w>
ens es</w>
an e</w>
K ind</w>
Ambi ente</w>
coun ter</w>
Po wer
L O
tre aty</w>
ari o</w>
H öh
fa il</w>
C ri
ersch einen</w>
ad or</w>
w alls</w>
help ed</w>
Sit z</w>
Ab kommens</w>
k ateg
bemü ht</w>
To d</w>
wat ers</w>
isch ung</w>
determin e</w>
D onn
an wes
Berat ung</w>
stär kt</w>
sp ür
nach zu
klu si
bel on
balcon y</w>
hol ding</w>
ass ure</w>
Du blin</w>
Fen ster</w>
Zus ätz
char ges</w>
Harmon isierung</w>
reach ing</w>
politi cians</w>
conc ep
ach tung</w>
3 ,
wat ch</w>
U ser</w>
comm and</w>
Vide o
rü stung</w>
main tained</w>
leg ungen</w>
in spi
berechti gt</w>
T est</w>
Kri min
resol ved</w>
he avy</w>
zuneh mend</w>
pro ve</w>
befür wor
Bus h</w>
Tra di
n de</w>
Ex ec
c les</w>
Engli sch</w>
Ele c
erheb lich</w>
Du sche</w>
tr e</w>
V an</w>
J es
än den</w>
teil nehmen</w>
equ ally</w>
per form</w>
out put</w>
is ol
resol utions</w>
bedeu ten</w>
Milit är
kämp fen</w>
Sp ann
rapporte urs</w>
E ssen</w>
invol vement</w>
cy cle</w>
beträ gt</w>
Host els</w>
ver langt</w>
fi es</w>
peri or</w>
restri ctions</w>
critic ism</w>
Pf licht</w>
a side</w>
zu erst</w>
repe at</w>
P op
la y</w>
in er</w>
ab len</w>
Struktur fonds</w>
Autom ob
col d</w>
W ien</w>
Struktur en</w>
Proble ms</w>
liber alisation</w>
em a</w>
In stead</w>
off enen</w>
dies el
appe ared</w>
require ment</w>
kon trolle</w>
brie f</w>
1 000</w>
wh atever</w>
ommen en</w>
et ri
er öffnet</w>
kom b
e ds</w>
Sch w
Rom an</w>
Verk auf</w>
defin e</w>
bed ro
amoun ts</w>
Kli ma</w>
schn elle</w>
inten d</w>
fo lio</w>
f ing</w>
-Ster ne-
kur ze</w>
auf zunehmen</w>
op inions</w>
hervorra gende</w>
deta illi
Proc edure</w>
peop les</w>
An griff</w>
off ices</w>
ni emals</w>
Beru fs
sem in
s me
pro hi
Mun ich</w>
Überzeu gung</w>
außer gewöhn
Archite ktur</w>
neuest en</w>
US D</w>
zw ungen</w>
sto ßen</w>
US B</w>
lea dership</w>
lar gely</w>
del a
betreff enden</w>
Da y</w>
kulturel le</w>
blo g</w>
Erwar tungen</w>
weis ung</w>
th e-
si e
manag er</w>
erg riffen</w>
Stell ung</w>
star ten</w>
system en</w>
är m
Änderungsanträ gen</w>
lei sure</w>
le aving</w>
B au</w>
Altern ative</w>
unmittel bar</w>
sur pr
ar ance</w>
Kap az
ed ly</w>
durch zuführen</w>
ah nen</w>
Y u
Bu ch</w>
leben s
pro ved</w>
pre ise</w>
increas es</w>
abgel ehnt</w>
Pun kten</w>
L ord</w>
staat liche</w>
for d</w>
Ri ver</w>
Aus stattung</w>
milli ons</w>
F A
zugän glich</w>
ven tionen</w>
Bet ra
prepar ation</w>
erweiter t</w>
Ameri ka</w>
or er</w>
gratu lieren</w>
a stri
Wahr heit</w>
seh e</w>
medi um</w>
me at</w>
stre ets</w>
F on
ate ful</w>
um zusetzen</w>
italien ischen</w>
ch ain</w>
Nach frage</w>
ME Ps</w>
B la
m l</w>
ausgezeich nete</w>
fle et</w>
entscheiden d</w>
ent decken</w>
thre at
intel lec
ey e</w>
F lash</w>
strategi es</w>
Mittelme er
Konfer enz
f ted</w>
Mittel punkt</w>
a x
Telef on
allgem ein</w>
sp anischen</w>
sch wei
de par
M ah
excep tional</w>
connec tions</w>
or a</w>
g eren</w>
R S
Croati a</w>
ei ght</w>
R h
reno vated</w>
pi eces</w>
grundle gende</w>
EAD S</w>
wirk sam</w>
tre at</w>
sa una</w>
natür lichen</w>
fal sch</w>
D em</w>
vor genommen</w>
rä f
lo yment</w>
F ei
di ge</w>
P L
rema ining</w>
masch inen</w>
d rei
T ru
v on
tu m
ho ff
zu legen</w>
at ures</w>
kurz em</w>
contri butions</w>
v ie</w>
h ü
W are</w>
West en</w>
Immobili en
Dritt ländern</w>
Be stellung</w>
sur v
depen ds</w>
Kateg orie</w>
enth usi
I mm
ti ckets</w>
erlau ben</w>
ben e</w>
schri ft</w>
SM Es</w>
y es</w>
deb ates</w>
sex ual</w>
invol ve</w>
Bu cht</w>
vol ume</w>
sat zes</w>
Leb ens</w>
Beh in
feh lt</w>
G old</w>
k top</w>
defin itely</w>
Can ada</w>
regul atory</w>
bekämp fen</w>
mess ages</w>
Wirk lichkeit</w>
S au
fri end</w>
communic ations</w>
Get rän
zentr alen</w>
phi losoph
Unter schied</w>
Techn ology</w>
wettbewer bs
aufge fordert</w>
welt weiten</w>
rah men</w>
har m
F ein
in zwischen</w>
Drit tens</w>
T op
woh l
s and</w>
do ors</w>
der ing</w>
Frem den
i -
umfas sen
ent lang</w>
Un gar
Th eir</w>
ch ap
An dre
ur a</w>
hosp it
and elt</w>
k ir
facilit ate</w>
Po ker</w>
Ma astri
k amp
be absichti
Ratsprä sidentschaft</w>
W et
Emis sionen</w>
men tali
künf tigen</w>
cre ates</w>
vil le</w>
parlia ments</w>
residen ce</w>
G et</w>
we ather</w>
ö ster
le ch
ausgezeich neten</w>
Je des</w>
sicher ungs
0. 000</w>
out door</w>
er ei</w>
Bo den</w>
Ban k
fir stly</w>
verurs acht</w>
certain ty</w>
Aus führungen</w>
sub mit</w>
gla d</w>
spr ing</w>
vol unt
reali stic</w>
Tour ismus</w>
sinn voll</w>
en ded</w>
Bo x</w>
ti erten</w>
st res
ill enn
einfa chen</w>
af ri
un eingeschrän
fin ished</w>
frei wil
ursprün glichen</w>
ini en</w>
Proje kten</w>
offici als</w>
B ör
Zer ti
P ress</w>
M -
ra n</w>
über nimmt</w>
tri eben</w>
identi fy</w>
schi cken</w>
Krank heiten</w>
reich ung</w>
prec ise</w>
ment ally</w>
er maßen</w>
ony mous</w>
uri es</w>
D es</w>
Cust om
Ex peri
ut tle</w>
er ör
contrac ts</w>
L os</w>
kri ti
ro te</w>
Ar z
wirk lichen</w>
ex t</w>
dis cipl
coun tr
up dated</w>
W affen</w>
Stru c
wirk ung</w>
ma gaz
Bet re
m ation</w>
k an</w>
Vorsch lägen</w>
U. S.</w>
O ver</w>
Jav a</w>
voll ständige</w>
rie si
hervor heben</w>
fac ts</w>
ehr gei
zi ele</w>
aussch uß</w>
at oren</w>
kein es
be stand</w>
ann ehmen</w>
ter s
Exper ten</w>
tur ns</w>
e ast</w>
be ge
Spec ial</w>
Geb rauch</w>
ac qu
R in
durch führen</w>
Program men</w>
P r
to b
Buch ung</w>
An gel
Schlaf zimmer</w>
Überein stimmung</w>
def end</w>
ass ungen</w>
st ant</w>
Wir d</w>
ü sse</w>
confir m</w>
ra d
ge prüft</w>
p lu
organiz ations</w>
bis her
Masch inen</w>
spec tac
i en
entwick elten</w>
enter tainment</w>
sett ings</w>
li sts</w>
Fron t</w>
di agno
cre ative</w>
Regi erung
Kapit al
Verhand lungs
h it</w>
c able</w>
behör de</w>
Stra ß
Ap plause</w>
Ver ring
ent standen</w>
Gerä te</w>
ri ed</w>
ti cket</w>
hab t</w>
Vertei digungs
Aus führung</w>
w us
jour ney</w>
col our</w>
k al
en ab
199 1</w>
ob li
nachhal tigen</w>
har dware</w>
m t</w>
kehr en</w>
ad voc
Kam era</w>
f tung</w>
ko stet</w>
k ings</w>
v ation</w>
d ation</w>
pos ing</w>
form ul
ß te</w>
zu lassen</w>
extre m</w>
N O
angemessen e</w>
Ko operation</w>
Wil l</w>
Well ness
V .</w>
B ol
zu ständigen</w>
reg ularly</w>
r ating</w>
occa sion</w>
d ritte</w>
sti l
re turned</w>
el er
ch ers</w>
Th rou
Ge win
beglück wünschen</w>
Arbeitsp lat
s ligh
cust oms</w>
dec la
G DP</w>
produ ziert</w>
kon tinu
führ ende</w>
decision- making</w>
und ings</w>
st opp
p um
la y
an statt</w>
Hal b
Arbeitsplätz en</w>
Partn ern</w>
verabschie det</w>
t ent
divi ded</w>
ali zed</w>
sug gest
aus geschlossen</w>
en de
conflic ts</w>
vis a</w>
E gyp
par ents</w>
fül lung</w>
ell o</w>
Bra si
gr ateful</w>
character istics</w>
Bri tain</w>
Ausgang spunkt</w>
gun sten</w>
P lug
funktion ieren</w>
Luxem bourg</w>
stit utes</w>
Sch a
bahn hof</w>
amerikan ische</w>
wirtschaf tlicher</w>
p lug
ans wers</w>
Phi li
Net z</w>
10 -
Vereinbar ungen</w>
statisti cs</w>
effec tiveness</w>
9 -
ma y
displa yed</w>
dri ver</w>
schlä gt</w>
notwendi ge</w>
lü ck</w>
abo li
T ar
Ele ment</w>
sich ere</w>
R and
go s</w>
sch afft</w>
issu ed</w>
de als</w>
he ber
gespeich ert</w>
Mitglied schaft</w>
co ast
P R
oh n
dr ink</w>
Au stausch</w>
A ction</w>
5 .</w>
m utz
höch sten</w>
der artige</w>
ti erte</w>
re serves</w>
K üh
di ed</w>
some what</w>
klar en</w>
ir ing</w>
be an
Fest legung</w>
fe e</w>
er mu
E ur
el i</w>
1 1.</w>
oper ational</w>
Verbin dungen</w>
emer gency</w>
organisi ert</w>
mark t
lau b
lan s</w>
il er</w>
ar tigen</w>
al co
re in</w>
lic ense</w>
Steu ern</w>
rit t
dri vers</w>
blu e</w>
T isch</w>
ri sts</w>
Regierungs konferenz</w>
An bieter</w>
A b</w>
Ques tion</w>
recommend ation</w>
awar eness</w>
S ign
p our</w>
impres sion</w>
he ating</w>
ey es</w>
masch ine</w>
g y
ent re
e chten</w>
Plen um</w>
Haf en</w>
gen i
Rumän ien</w>
mus ste</w>
è s</w>
Davi d</w>
ro ads</w>
a is</w>
An rei
ten e</w>
ed ge</w>
on i</w>
conci liation</w>
z in</w>
mar quis</w>
le u
impres sive</w>
ab road</w>
Ma c</w>
komm unik
h t
Entwicklungs länder</w>
tw o-
o th</w>
al ed</w>
UN -
C yp
zu gunsten</w>
verschieden er</w>
mo dule</w>
Portu gu
Mas sen
sti sch</w>
judi cial</w>
fül len</w>
. org</w>
par ks</w>
m än
p fen</w>
hö her</w>
W ash
be wäl
Kro ati
h am
gl ück
gran t</w>
Rot ary</w>
Kommunik ations
Ho li
own ers</w>
Gest altung</w>
wi tn
m ist
Vie w</w>
ein gerich
Gleich gewicht</w>
Bu dap
surro undings</w>
own er</w>
er b
electri city</w>
bek omm
at em
schön sten</w>
Fra mework</w>
zi er
wor se</w>
su ites</w>
en for
s auber
laun ch</w>
v ast</w>
ris ing</w>
kontinu ier
den ten</w>
Re form
Ma y
In done
indic ated</w>
g keits
star ts</w>
eig net</w>
k ö
Institu tion</w>
Bemerk ungen</w>
num mer</w>
person nel</w>
min uten</w>
g ungs
collec tive</w>
Cyp rus</w>
frequ ently</w>
contin ent</w>
verhin dert</w>
subsi dies</w>
Schri ft
transpor tation</w>
proper ties</w>
min ority</w>
fe ed</w>
ab and
Sa una</w>
tn is
b ungen</w>
aus gesprochen</w>
war ran
Jour n
AN D</w>
m essen</w>
KM U</w>
ge ographi
Nah en</w>
Far be</w>
&apos; ve</w>
wachst um</w>
Aus nahme</w>
Be weis</w>
speak er</w>
for th
O ld</w>
C D-
ter -
di c</w>
Krank en
Des wegen</w>
Ent fer
west lichen</w>
pollu tion</w>
mul tin
dro p</w>
bestä tigen</w>
Dro gen
func tioning</w>
Kon sul
über wach
S par
mini str
l li
fast er</w>
adv is
Sub sidiar
Wer bung</w>
Ven e
O s</w>
Bei träge</w>
besch le
Verring erung</w>
Klas se</w>
Gesch m
Fun ds</w>
Ver bot</w>
depen ding</w>
N on-
i res</w>
clas si
be zahlen</w>
Po st</w>
chn ung</w>
auf nehmen</w>
pro p
beschrän kt</w>
Nach richten</w>
lar s</w>
zi r
Bulg aria</w>
tig te</w>
te ams</w>
st ück</w>
conduc ted</w>
acc o</w>
Um gang</w>
Kon kur
ethn ic</w>
ar ischen</w>
interess ante</w>
struktur en</w>
Al ter</w>
lo unge</w>
Amer ic
tim edi
Un der</w>
so dass</w>
W he
20 12</w>
on ing</w>
Wer k</w>
Fähi gkeiten</w>
k as</w>
gi gen</w>
A ssi
0 4</w>
ung st
sign s</w>
is o
Kon figu
ko st
configu ration</w>
stra h
satis fied</w>
T ol
cover ing</w>
L as</w>
Fit ness
aus gesetzt</w>
Garanti e</w>
wün sch
supp le
commit tees</w>
bau t</w>
w u
des k</w>
Sch ool</w>
Regi me</w>
Mün chen</w>
i ties</w>
erleich tern</w>
War en
top ic</w>
ru b
rech tliche</w>
low ak
gei sti
4 .</w>
Ma ß</w>
äh r</w>
an o
geh ende</w>
er fahr
St ei
d ating</w>
comm un
Con su
Be am
hund reds</w>
re di
R an
foc used</w>
ange l</w>
ni ghts</w>
Konfli kt</w>
Wech sel
kur zen</w>
car bon</w>
Zol l
F is
vor legen</w>
pro mp
organiz ed</w>
h all</w>
Zus atz
El tern</w>
wach sen</w>
pla ys</w>
m uni
m us</w>
exp lic
akti ven</w>
vis ual</w>
steh e</w>
n etz
viel er</w>
stre am</w>
et -
K r
Geschäf te</w>
gn e</w>
care ful</w>
mi d
mer ken</w>
Ad di
Al li
et t</w>
O b</w>
ut ing</w>
invol ves</w>
ten dlich</w>
phen om
passi ert</w>
no ted</w>
f em
Schwer punkt</w>
Besonder s</w>
Amend ments</w>
wel fare</w>
ge prä
K as
produc tive</w>
bi ke</w>
Schnit t
hei m</w>
Prin zipien</w>
198 9</w>
Ge gend</w>
Er leb
li ft</w>
bu ch
ber ech
E D</w>
Des k</w>
ed oms</w>
Ein beziehung</w>
win dows</w>
vor her</w>
pro ud</w>
Kompon enten</w>
under stood</w>
acc u
li brary</w>
gel tenden</w>
blo ck
traffi cking</w>
pre fer</w>
lo oked</w>
lau tet</w>
kurz fris
T enn
Ch arta</w>
A do
dem anding</w>
bilater al</w>
b lood</w>
ul timately</w>
lin gen</w>
kat astrop
i x</w>
Ur spr
Coo k
uni versal</w>
Vi sion</w>
Re al</w>
Haf tung</w>
the at
stri ct</w>
räu men</w>
gef ähr</w>
w asser</w>
gh ter</w>
ber ge</w>
bemü hen</w>
gi ble</w>
akzep tabel</w>
Je de</w>
sch u
g age</w>
famili ar</w>
wol lten</w>
acti vely</w>
Ein stellungen</w>
ti zen</w>
st ag
an wen
sorgfäl tig</w>
re ject</w>
adv ent
Japan ese</w>
Ä r
um geben</w>
gn issen</w>
ati k</w>
se at</w>
Plan ung</w>
Mob il
tan e
ent wurf</w>
T O
zü ge</w>
hinzu fügen</w>
declar ation</w>
Sec re
sch ule</w>
oth ek</w>
occ ur</w>
C openhagen</w>
y le</w>
Mon etary</w>
Ab hängi
re ported</w>
in ser
emp f
e z</w>
cont acts</w>
Dor f</w>
verlei hen</w>
ver bringen</w>
techni ques</w>
ben utz
Mar ina</w>
Investi tions
in habit
fa ther</w>
deli ghted</w>
am az
An merk
p -
jo ined</w>
di d
Y es</w>
post -
Konta kt
Fre e
as h</w>
Sch ei
Portugu ese</w>
mo stly</w>
früh eren</w>
dar y</w>
Kre u
sam es</w>
tats äch
g ine</w>
t ack
spo ken</w>
dan k
boo t</w>
Zi ffer</w>
Mex i
g lo
ban ken</w>
im posed</w>
gro w</w>
cast le</w>
is lands</w>
compet ent</w>
Daten schutz
Bet ru
Ger ichte</w>
mas sage</w>
instal lieren</w>
europ a</w>
Op tionen</w>
si sch</w>
Gesprä che</w>
Führ ungs
E X
et h</w>
defin iert</w>
An gst</w>
clas sic</w>
grenz ung</w>
Vol k
si m
remo te</w>
un möglich</w>
docu mentation</w>
fra g
avo i
In tel
arri ve</w>
promis es</w>
desi red</w>
Minder heiten</w>
mon u
cop yright</w>
Transpor t
up -
chann els</w>
Mor gen</w>
investi g
T el
T ats
ver trag</w>
sol ange</w>
mal erweise</w>
12 .
er läu
Veranst altung</w>
B lack</w>
zi ge</w>
eb enen</w>
re min
f ak
Sch luss</w>
, 00</w>
imp lic
d ele
after noon</w>
V iz
Lu ft</w>
Hand eln</w>
Euro pol</w>
p ft</w>
begrü ßt</w>
fer ner</w>
z ei</w>
E-Ma il-
-F i</w>
Sat ur
geh ens
bo und</w>
be ten</w>
verring ern</w>
justi fied</w>
host el</w>
T rau
P in
Ver zeichn
Per haps</w>
gehöri gen</w>
ge trenn
Zy per
Sol lten</w>
prin ting</w>
in fec
Vorsch lags</w>
Sp i
Res ol
Re port</w>
te a</w>
Fre it
m ir
M ann
chem ical</w>
s ä
L as
C .</w>
wh ol
ausge führt</w>
C N
visi ted</w>
de cre
d un
inv ite</w>
Tex te</w>
Fak toren</w>
fli ghts</w>
den de</w>
Künst ler</w>
t ance</w>
M ens
rupp en</w>
Lan g
Fri day</w>
m ung</w>
aci ón</w>
Wissen schaft</w>
gest altet</w>
Verf assungs
perform ed</w>
Bal tic</w>
ver gleich
S V</w>
Hei mat
dire kten</w>
Zw ischen
Wei ß
Rechn ung
Exec utive</w>
Am ts
Al les</w>
lä ßt</w>
anspru chs
Up date</w>
Poli tiken</w>
met al</w>
clu bs</w>
Jus tiz</w>
vi erte</w>
tack le</w>
sub sidiar
minist ers</w>
inter ior</w>
pl ate</w>
fizi eren</w>
accompan ied</w>
su mm
sch em</w>
b ol
5 1</w>
ver ändern</w>
Slo v
wel chem</w>
co sy</w>
me ant</w>
dra w
la m</w>
D ou
teu er</w>
subsidiar ity</w>
erreich bar</w>
co ok
Tre k</w>
Ins besondere</w>
ä r</w>
provi der</w>
Prote ction</w>
einhei tlichen</w>
geb iete</w>
val ent</w>
schle cht</w>
mot or</w>
öster reich
mor al</w>
k rieg</w>
fol lows</w>
da fri
be vorzu
Wün sche</w>
Stra ßen</w>
E W
ran g</w>
Balk on</w>
terror ist</w>
Selbst verständlich</w>
Puer to</w>
nor thern</w>
ber aten</w>
es ch
eh e</w>
correc tly</w>
to i
schwi er
cor ner</w>
ra c
en ergi
ein ig</w>
lus s
Vor gehen</w>
demonstr ate</w>
cro ss</w>
T yp
5 2</w>
Mobili tät</w>
be stehende</w>
gn ü
ab gestimmt</w>
sho wing</w>
Gericht shof</w>
main taining</w>
förder t</w>
au x</w>
Sec ond</w>
8 6</w>
te ste</w>
Berei t
Arbeits markt</w>
e astern</w>
respec ted</w>
ha ir</w>
ge teilt</w>
Sor gen</w>
R em
k ter</w>
vorhan denen</w>
je gliche</w>
in n</w>
Tats ächlich</w>
Internet -
it i</w>
höh eren</w>
ou red</w>
an i</w>
bel an
Somm er
A sh
u red</w>
ta gen</w>
assu me</w>
occa sions</w>
fa ßt</w>
Ado be</w>
Stock hol
Ziel en</w>
Vertei digung</w>
Sig nal</w>
betri eben</w>
Thir dly</w>
um ini
ent steht</w>
P RO
durch schnit
Gesell schaften</w>
p m</w>
W ein</w>
visi ting</w>
form al</w>
demonstr ated</w>
Win d
A ktion</w>
No ch</w>
Ver sionen</w>
b un
N ein</w>
E Z
far m</w>
vac ation</w>
Web seiten</w>
N os</w>
zu gang</w>
u. a.</w>
lie b
ich ts
grundsätz lich</w>
gewähr t</w>
My SQL</w>
L t
zent ral</w>
tran satlan
7 2</w>
übri gens</w>
star tet</w>
Dy nam
2. 0</w>
z o</w>
k amen</w>
ier ungs
eben e</w>
an sch
Mens ch</w>
äuß ert</w>
bes timmen</w>
Sol lte</w>
N I</w>
ra w</w>
in ations</w>
conclu ded</w>
bo ts</w>
äuß ern</w>
lich sten</w>
horiz on
Mark tes</w>
I C</w>
Budap est</w>
si erte</w>
sec on
on ic</w>
Tra g
New sletter</w>
D ri
Außen politik</w>
ver wand
steu erung</w>
R und
Por t
ell ers</w>
Struc tural</w>
18 .</w>
Zw ecke</w>
ge zwungen</w>
min orities</w>
invest ors</w>
auff or
Sta at
Ro bert</w>
Ein schrän
tou rists</w>
tax ation</w>
entran ce</w>
Aufenth al
pl enty</w>
läss lich</w>
erheb liche</w>
Wi -Fi</w>
Veröffent lichung</w>
pal ästinen
k y</w>
m i</w>
fün f
sch eme</w>
is s
Einwander ung</w>
care er</w>
b ou
Fir men
wor l
rei fen</w>
k raten</w>
Besor gnis</w>
A ct</w>
spartn er</w>
si ght</w>
n ungs
kü mm
enth alt</w>
cor ruption</w>
ch a
mat ch</w>
dr au
star s</w>
relax ation</w>
komm e</w>
air -
ver dient</w>
r on</w>
proz esses</w>
überzeu gen</w>
Über setz
ruhi g</w>
pris on
ma chte</w>
collabor ation</w>
Bezieh ung</w>
l ying</w>
inhabit ants</w>
b les</w>
Kontrol len</w>
pre t
la ges</w>
sätz en</w>
Medi en
steu er</w>
PP E-
Ex pl
Bemerk ung</w>
beträ ch
fra me</w>
contain ing</w>
tran sition</w>
al bum</w>
Kilom eter</w>
or -
le bt</w>
D ue</w>
er ce</w>
Distri bution</w>
di ch</w>
wid ely</w>
up dates</w>
L ö
over come</w>
ame ters</w>
S emin
et ed</w>
Erzeu gnisse</w>
t wi
d. h.</w>
lie ß</w>
g allery</w>
dep th</w>
unver züglich</w>
Belgi um</w>
exper t</w>
zusammen arbeiten</w>
fac ility</w>
ap art</w>
Untersuch ungen</w>
bekämp fung</w>
Wi th
pos sibly</w>
geb oren</w>
Freih eiten</w>
ori ented</w>
high- quality</w>
ee ded</w>
bezieh ungen</w>
ver ehrte</w>
trans actions</w>
on ien</w>
expl ore</w>
d less</w>
sen sible</w>
passen ger</w>
beschäf tigen</w>
verur teilt</w>
verk aufen</w>
ver i
P ort</w>
den kt</w>
Ver pack
Chan cen</w>
li ked</w>
ec omm
d ans</w>
con tradi
Re de
Ho hen</w>
f an</w>
chan nel</w>
16 0</w>
dau er</w>
L E</w>
H en
re plac
Des cription</w>
kti ver</w>
high ligh
genü gend</w>
determin ation</w>
Mex ico</w>
gar dens</w>
arri ved</w>
on going</w>
new ly</w>
antwor tet</w>
win es</w>
ges u
Th urs
regar ded</w>
re main
credi bility</w>
o st
M eg
An la
sh aring</w>
s q
einger eicht</w>
re placed</w>
Pak ete</w>
J e</w>
E M</w>
intellec tual</w>
aus sprechen</w>
uni versi
bo ten</w>
4- 0
Erhol ung</w>
ver halten</w>
un gefähr</w>
glob alisation</w>
Jo se
n ischen</w>
lok ale</w>
ab sen
Nor thern</w>
D ie
fit ness</w>
f ot
außerord entlich</w>
argu ment</w>
H it
ör ung</w>
s ac
er setzt</w>
be we
M esse</w>
Indi vidu
t ables</w>
ro b
no w
cri mes</w>
eth eless</w>
Platt form</w>
L ev
ati ver</w>
wei le</w>
ge fügt</w>
fäl lig</w>
Wash ington</w>
Ne ws</w>
stu dio</w>
sta at</w>
o v
vis ory</w>
tar ge
F ischer</w>
lie f</w>
ex emp
behand lung</w>
fir ms</w>
Pre isen</w>
entscheiden de</w>
decla red</w>
Ver breitung</w>
Sch lu
rech tzei
M all
rapi dly</w>
Ph one</w>
sch einen</w>
imm igrants</w>
g in</w>
behavi our</w>
ave c</w>
K yo
Brazi l</w>
v ince</w>
ti que</w>
ten nis</w>
correspon ding</w>
E dition</w>
s .</w>
mari time</w>
Mal ta</w>
vie wed</w>
pla y
Son ne</w>
Kon sens</w>
zus ehen</w>
gew inn
T S</w>
Kur z
li qui
V AT</w>
Um feld</w>
Poli sh</w>
gener ated</w>
begrenz t</w>
R om</w>
l ler</w>
Wissen schaft
Se ktoren</w>
K e
te sted</w>
nun mehr</w>
Per sön
sty lish</w>
Zentral bank</w>
S ad
stron ger</w>
sen ding</w>
effe ktiv</w>
Res pe
B rie
ori ent
c utting</w>
gerä te</w>
distri buted</w>
g old</w>
Softwa re
Fil m
wiederhol en</w>
la sting</w>
ck er
F ru
enjo yed</w>
program ms</w>
Arz nei
gra tions
St ück</w>
Ear th</w>
organisi eren</w>
legi timate</w>
Y o
einzigar tige</w>
Stu denten</w>
sel be</w>
d al</w>
ver hand
förder ung</w>
l ust</w>
drück t</w>
mil es</w>
Ra dio</w>
mor ali
l ac
dire kte</w>
contra st</w>
the ore
Pol y
Ha ar
Über setzung</w>
propos es</w>
geh enden</w>
Aus gabe</w>
mil k</w>
vor bereitet</w>
educ ational</w>
ben en</w>
ben den</w>
a e
Mu sic</w>
M B</w>
func tional</w>
dür fte</w>
per cent</w>
fa vor
r ental</w>
for schung</w>
f on
s man</w>
resi stance</w>
pf lan
h ungen</w>
exc iting</w>
den heit</w>
Balk ans</w>
Ansch luss</w>
her itage</w>
größ er</w>
Stra s
j o</w>
ex por
countr y
W LAN</w>
vor stellen</w>
perfe kt</w>
gra f
einfach er</w>
Neu e</w>
wom an</w>
Pro vi
E V
t es
sich eren</w>
z onen</w>
plan et</w>
adul ts</w>
Rechts grundlage</w>
he at</w>
woh nen</w>
st amm
sett lement</w>
Hung ary</w>
Studi en</w>
P O
inform ationen</w>
nahe zu</w>
certi fic
addres ses</w>
Lie f
m assi
congrat ul
ange wand
individu elle</w>
h n
consider ing</w>
ro utes</w>
pu ts</w>
plen ary</w>
is er</w>
bot tom</w>
ü bt</w>
verantwor tungs
letz tlich</w>
Gi ven</w>
zügi gkeit</w>
zei ge</w>
tor al</w>
redu zieren</w>
mo tiv
Gewi cht</w>
fl at</w>
si erten</w>
pre sident</w>
encoura ging</w>
appe arance</w>
ac ted</w>
präsen tieren</w>
person en
stra fe</w>
hin aus
empf oh
di gn
Kyo to</w>
magn ific
W ell</w>
Tsch ech
sligh tly</w>
Woh nung</w>
satisfac tion</w>
ist a</w>
T om
K ing</w>
identi fied</w>
gi o</w>
Ern ähr
du l</w>
behin der
prä z
dist ingu
Krank heit</w>
o ten</w>
ag gres
Nach richt</w>
G lei
Er wä
Host el</w>
Bereit stellung</w>
profession als</w>
en h
th ly</w>
de partment</w>
auth ori
gän ge</w>
constitu tional</w>
5 4</w>
Eisen bahn
V alle
provi ders</w>
geb enen</w>
sta un
dis k</w>
vulner able</w>
di t</w>
ber ühr
Be weg
mi x</w>
Zusätz lich</w>
Grün dung</w>
Ch eck-
bek räf
U -B
erinn ert</w>
L y
prepar ing</w>
sub stance</w>
exam ine</w>
belan gt</w>
Pi az
Energi ever
wer tung</w>
ear th</w>
propos ing</w>
mitt ler
geb ieten</w>
fre m
er end</w>
anwes end</w>
Kapit el</w>
Ab schnitt</w>
verstär ken</w>
bestimm ter</w>
Bar s</w>
h et</w>
gerä t</w>
es cap
R est</w>
new sp
Besch lüsse</w>
proce ed</w>
d s
Er stellung</w>
direc tory</w>
erfolgreich e</w>
Sich erung</w>
Geh eim
groß zügi
A 3
Vi et
um in
is tic
speci ally</w>
ei ra</w>
Li fe</w>
Fa x</w>
Er inn
Deut schen</w>
O r</w>
verk auft</w>
einge halten</w>
ck -
F ood</w>
inclu sion</w>
betei ligen</w>
System en</w>
Genehm igung</w>
Bel ast
ähr t</w>
vi rus</w>
interpre tation</w>
Medi ka
se where</w>
sch ed
der er</w>
With out</w>
Sa int</w>
Fac ilities</w>
val ley</w>
Thurs day</w>
Deb i
volunt ary</w>
U C
sch -
Ameri kan
spann ung</w>
re form
to wns</w>
speci fied</w>
bedau er
adju st
t liches</w>
adop ting</w>
Wi thin</w>
Krä fte</w>
soli d</w>
P act</w>
tob acco</w>
M ur
re cip
sti ll
sol ches</w>
p ac
individu ellen</w>
ber au
di ver
il fe</w>
par tly</w>
prä sent
Z one</w>
recor ded</w>
finanzi ert</w>
deci sive</w>
de struction</w>
fo undation</w>
cour ts</w>
ap plying</w>
K ür
E duc
fil ms</w>
bel ast
Ein w
fil ter</w>
ch air
ci tizen</w>
Benutz er
k g</w>
fashi on</w>
be währ
kompli zi
dom ain</w>
b all
Hung arian</w>
A ID
S mo
vor rangi
system ati
fu sion</w>
elektron ischen</w>
Vor sitz</w>
Dar um</w>
Ma j
Ko oper
Automob il
bereit gestellt</w>
ab use</w>
C it
wer ken</w>
off ic
ch est
au en</w>
über prüft</w>
sugges tions</w>
ge stattet</w>
führ ungs
ange geben</w>
ameri ka</w>
Kur s</w>
Gu ests</w>
beru ht</w>
Vide os</w>
Tra ining</w>
15 .</w>
st em</w>
s ung</w>
Dat ei
hi ll
ear n</w>
mag ne
D ä
Blo g</w>
exc eption</w>
Le gi
an belangt</w>
H all</w>
E B
on al</w>
con fer
O der</w>
inde x</w>
Identi tät</w>
Schul en</w>
Atlan tic</w>
ul t
entscheiden der</w>
w inner</w>
in klusive</w>
f lug
N eben
Au ge</w>
ro ck</w>
compon ent</w>
Ver zö
Th omas</w>
enst adt</w>
accur ate</w>
Kon stru
wissen schaftliche</w>
spo ke</w>
in flation</w>
im pose</w>
ex klusi
bri tische</w>
them e</w>
suff er</w>
gesund heit</w>
Schluss folgerungen</w>
hous ing</w>
ackno wled
Män nern</w>
A v
week end</w>
auf s</w>
R ati
reich s</w>
m use
ensu res</w>
Besch luss</w>
Aus stellung</w>
groß em</w>
top ics</w>
supp liers</w>
expan sion</w>
Städ ten</w>
De fiz
be antworten</w>
y o</w>
schn ei
li z
heu tige</w>
Di ffer
Vor der
complic ated</w>
Verk ehr
sa ving</w>
re servations</w>
ne vertheless</w>
ein bezogen</w>
T ER
IT -
flo ws</w>
Lief erung</w>
ber at
O F</w>
sh ar
satisfac tory</w>
j enen</w>
ie ßen</w>
I .</w>
Ad minist
üh r</w>
f ur</w>
d eine</w>
Maastri cht</w>
dr ing
Entla stung</w>
l i</w>
ra cy</w>
oh n</w>
ge o
stan de</w>
soci e
sion al</w>
me e</w>
gh ly</w>
di vision</w>
G las
her zustellen</w>
bur ger</w>
verbin den</w>
lo ck</w>
Gra n</w>
Fol lowing</w>
Über legungen</w>
mo ther</w>
Eng ine
t ö
gen eri
Sp ace</w>
CO M</w>
B C</w>
stan z</w>
se -
geb rau
C S</w>
P lätz
Bild schir
. 000</w>
fer tigen</w>
du ties</w>
di n</w>
T on
K auf</w>
A g
is ra
größer es</w>
bis lang</w>
zi elen</w>
d as
R ü
Mark eting</w>
Katastrop he</w>
sha res</w>
s low</w>
de x</w>
Konsequ enzen</w>
et es</w>
en kt</w>
drin ks</w>
Mitarbei tern</w>
C R
gebo ten</w>
de fec
connec t</w>
Ko ordin
gener ate</w>
b attle</w>
Agri culture</w>
in put</w>
D ach
B y
vor anzu
fän ger</w>
su rely</w>
em en</w>
Stand or
en abled</w>
Cli ent</w>
P y
wech sel</w>
inv est</w>
Besch rän
Ü bri
in su
Stoff e</w>
7 1</w>
pat ent</w>
great ly</w>
we ge</w>
strai ght</w>
less ons</w>
ex it</w>
dis abled</w>
Nach hal
Gewähr leistung</w>
Geor ge</w>
ism us
el sewhere</w>
ch st
appoin tment</w>
R ap
kon fron
Ungar n</w>
M angel</w>
erzeu gt</w>
bei getragen</w>
Fre unden</w>
Bud gets</w>
difficul ty</w>
Ex change</w>
won der</w>
offizi ellen</w>
I V
tran si
strateg ischen</w>
far ming</w>
supp lies</w>
ch amp
Leg al</w>
An im
y outh</w>
port al</w>
ign ori
electri c</w>
ver mitteln</w>
sch efs</w>
An sichten</w>
shi pping</w>
re struc
leh nung</w>
f estival</w>
ar ab
Ma il</w>
zu ständig</w>
exc essive</w>
Ger man
we ar</w>
BM W</w>
i on
O s
Ass embly</w>
sol ely</w>
al li
R ele
Her b
De f
ck en
D ü
l y-
erle bt</w>
Park platz</w>
car rying</w>
ag u
D auer</w>
hand le</w>
ge kenn
ge fallen</w>
absen ce</w>
hervor ge
pack aging</w>
Con gress</w>
h em</w>
geschn it
mensch liche</w>
integri ert</w>
bat ter
al located</w>
isra eli
Dig it
spectac ular</w>
kl eines</w>
Wohl stand</w>
ru f</w>
mo ti
Pal äst
Mis sion</w>
Men sch
winn ing</w>
i ken</w>
ge wissen</w>
ni er</w>
isch -
ed ings</w>
Redu zierung</w>
F al
im por
g ot
W o</w>
5 3</w>
i ens</w>
bet ten</w>
hi p</w>
erfolgreich en</w>
con sent</w>
a x</w>
zu gr
ges s
argu ments</w>
Vor stellung</w>
cu ts</w>
ver sichern</w>
Wäh len</w>
Mon it
Da für</w>
vide os</w>
investi eren</w>
fin ish</w>
Re volution</w>
Mob ile</w>
Ex tre
mittl eren</w>
co operate</w>
Her z
viel es</w>
ta gs</w>
sub sidi
quar ters</w>
effizi ent</w>
d rop
belie bi
Pot enzi
fore sts</w>
G au
9 2</w>
sch e
fu er</w>
fahr er</w>
besch reibung</w>
un for
luxuri ous</w>
konta ktieren</w>
entwick elte</w>
Net work</w>
E d
vi li
shor t
Son y</w>
ro ot</w>
Whe ther</w>
Mo z
Bedro hung</w>
b ad
spra ch</w>
pa ying</w>
W är
ul s
per mitted</w>
lü ssel
bwürdi gkeit</w>
beein druck
Joh ann
Be au
wa ff
Schi ffe</w>
Bro wser</w>
ent es</w>
B and</w>
wei len</w>
compar ison</w>
bew u
Zivil gesellschaft</w>
Su iten</w>
pursu e</w>
mi x
Wer ke</w>
reit er
Stras bourg</w>
Ex ist
lab elling</w>
minist eri
berei chen</w>
Gar den</w>
Be sides</w>
verkehr s</w>
Isra eli</w>
descri ption</w>
anzu zeigen</w>
techn ologie</w>
k on</w>
e be</w>
auf treten</w>
Kolleg in</w>
ven tion
kti ert</w>
harmon isation</w>
Vor haben</w>
Viz ep
Can on</w>
vor ange
pic tu
ment -
constitu tion</w>
be hoben</w>
6 .</w>
pol y
bed ing
Li ke</w>
perio ds</w>
Poli zei</w>
Lebens mittel</w>
E ch
D ER</w>
C F
A D</w>
weit gehend</w>
ver teilt</w>
hä user</w>
event ually</w>
Inter essen
ordn ungen</w>
kateg orien</w>
6 6</w>
shor t-
los ses</w>
extra ordinary</w>
Schlü ssel</w>
Ge fahren</w>
secre t</w>
p or</w>
fo und
zu tage</w>
wiederhol t</w>
p on
Tou risten</w>
Kroati en</w>
Glau bwürdigkeit</w>
E I
letz tendlich</w>
dru g</w>
recei ving</w>
beob achten</w>
Bo den
5 6</w>
Gegen stand</w>
Ein wohner</w>
6 8</w>
vir tual</w>
la yer</w>
herr sch
gew onnen</w>
è re</w>
enh ance</w>
c us</w>
geh ol
magnific ent</w>
T reib
direc ted</w>
B ased</w>
she et</w>
inter nen</w>
sub jects</w>
stre bt</w>
T own</w>
Lo unge</w>
Gerä t</w>
Finanzi erungs
CO N
gemein schaftlichen</w>
franzö sische</w>
Holi day</w>
wel coming</w>
bab we</w>
Ch urch</w>
sozi aler</w>
s inc
im port</w>
Sun day</w>
Prakti ken</w>
Fer r
confir mation</w>
arbei tungs
H aving</w>
Gem ü
c ei
be ur
X P</w>
d or</w>
ch am
Z ul
Vizep rä
Sp eich
Posi tionen</w>
wel com
unic ations</w>
individu ell</w>
s elling</w>
pro ven</w>
k ette</w>
f ans</w>
Gra d</w>
verbun denen</w>
manufactur er</w>
lauf enden</w>
every day</w>
bet reiben</w>
Lissab on-
K en
Frühstücks buffet</w>
Bo ot
hier bei</w>
To ols</w>
Konta kte</w>
ter i
herunter laden</w>
as ti
Energi en</w>
obli ged</w>
gesetz ten</w>
al ties</w>
F ast</w>
Ein heit</w>
Audi tors</w>
vorzu legen</w>
tra ge
ru ms</w>
künf tige</w>
ann i
Z wei</w>
W äl
ähn liche</w>
ge führten</w>
arbei ts
J ames</w>
mod ell</w>
im ports</w>
Be glei
B lan
tei lungen</w>
rus sischen</w>
ful fil</w>
verfüg baren</w>
St rom
depar ture</w>
besch rieben</w>
Über gangs
angebo t</w>
proble me</w>
Tro tzdem</w>
zi el
pl atte</w>
ga ined</w>
Mon day</w>
Belgi en</w>
fer tig</w>
Tran sa
N ap
Ger ade</w>
Dem on
no tic
Betra g</w>
tri al</w>
sau ber</w>
o tive</w>
ck y</w>
as sets</w>
S ein</w>
Re dner</w>
n ör
beein trächti
V el
lau b</w>
gen -
Wer be
privi leg
rec y
ge pf
Program m
quar ter</w>
ag ra
N ig
stol z</w>
r d</w>
en -</w>
do es
T ool</w>
So vi
Kon text</w>
necess arily</w>
su gar</w>
liber al</w>
ab stimmen</w>
Z ur
Bud get</w>
neigh b
Ver einfach
uni versity</w>
dau ert</w>
C hil
suggest ed</w>
Mod elle</w>
In fo
B IP</w>
illeg alen</w>
du mp
S m
concep ts</w>
A mon
den falls</w>
tradition elle</w>
er ischen</w>
Weiter en</w>
mus sten</w>
an er</w>
Fahr zeuge</w>
ver än
Spa ß</w>
Übernach tung</w>
wen ig
re vision</w>
ra ising</w>
i j
vorgeseh enen</w>
ge dacht</w>
Th ail
S imp
Br un
st un
hund red</w>
ex ports</w>
aus gerichtet</w>
schätz ung</w>
program ming</w>
P lus</w>
4 0
sav ings</w>
represent ation</w>
promis ed</w>
ou b
gu n</w>
fer n
entsch lossen</w>
Wer t
tradi tions</w>
her vor</w>
grün den</w>
i tive</w>
f eu
ma kers</w>
at tri
ak ing</w>
D N
7 .</w>
l ers</w>
A par
ter ri
kom fort
gesch afft</w>
b ic
Aus flüge</w>
17 .</w>
C las
weis ungen</w>
ge plan
bek annte</w>
Po wer</w>
N ic
Er gän
unver gess
refer endum</w>
lob by</w>
akti viert</w>
Völ ker
N avi
wa ve</w>
us ern</w>
super vision</w>
cas h</w>
B ö
unter streichen</w>
la bel</w>
kit ra
entsp annen</w>
ci an</w>
Situ ationen</w>
Selb st</w>
dep end</w>
cr yp
country side</w>
constitu te</w>
C E
ähn lich</w>
th ro
er stre
ber gen</w>
Pla ya</w>
welcom ed</w>
col ours</w>
bedeut ende</w>
HT ML</w>
Donn er
supp lier</w>
redu ziert</w>
clean ing</w>
Vier tel</w>
S how</w>
gel ingt</w>
arti st</w>
Flücht linge</w>
therap y</w>
betreff end</w>
vorgeschla gene</w>
utt gar
sper ity</w>
speich ern</w>
cent rali
Wi kitra
over view</w>
negoti ating</w>
ab sor
LA F</w>
Brasi lien</w>
coun ts</w>
Provin z</w>
mit teilen</w>
instruc tions</w>
Tai wan</w>
wunder schönen</w>
ter ed</w>
emerg ing</w>
auth enti
zukünf tigen</w>
ger icht
Kon to</w>
eu ro
Mu t</w>
wirtschaf tlich</w>
Kör per
Bet ten</w>
Ara b</w>
über greif
Do es</w>
mis sing</w>
forth coming</w>
ein zusetzen</w>
Li ve</w>
Ima ge</w>
Ger echti
un ited</w>
optim ale</w>
err ors</w>
Ein kommen</w>
gr ös
amen ities</w>
tim et
sto cks</w>
ol o</w>
lang sam</w>
Qu ad
Proz esses</w>
G lück</w>
men ade</w>
m ann
ap p</w>
Verletz ung</w>
an gebracht</w>
Ob ama</w>
Konkur ren
tri ps</w>
St uttgar
Salz burg</w>
Proz esse</w>
5 9</w>
vertei digen</w>
re sear
beschle uni
b ele
S ind</w>
wah l
staat lichkeit</w>
pre chen</w>
jen er</w>
en em
attemp ts</w>
G anz</w>
Fin land</w>
unzu reich
ver län
ti ere</w>
leg ally</w>
Pre siden
Fri endly</w>
Bulg arien</w>
Al ger
Person al
Feh ler
Elek tro
st y</w>
be endet</w>
Hei zung</w>
5 8</w>
unter liegen</w>
sch lag</w>
Er füllung</w>
Auf sichts
wirk same</w>
thous and</w>
ar my</w>
AK P-
proje kte</w>
pan oram
G ast</w>
verbin det</w>
ma chten</w>
konfron tiert</w>
wi reless</w>
ban king</w>
Eigent um</w>
fän gt</w>
b ann
Zu ständigkeit</w>
Pra gue</w>
Frei zügigkeit</w>
unter zeichnet</w>
mati k</w>
bekomm t</w>
st ages</w>
gebil det</w>
d oppel
prev enting</w>
kon z
er setzen</w>
i gt</w>
Schwi mm
M eines</w>
Num mer</w>
NG Os</w>
Feder ation</w>
20 -
gehens weise</w>
P et
non- smoking</w>
klär ung</w>
kl ein</w>
ar ise</w>
Schi ff</w>
Phot o
succ eed</w>
ri de</w>
on e
ed back</w>
c el</w>
und oub
proce edings</w>
est e</w>
Dol om
A C</w>
tä glichen</w>
ri eren</w>
reali se</w>
pro sperity</w>
barri ers</w>
Pas sa
sec tions</w>
o ch</w>
eg al</w>
con vi
Donner stag</w>
w rote</w>
des wegen</w>
be stellen</w>
an gesehen</w>
ter ung</w>
institution elle</w>
le aves</w>
ge beten</w>
ari ties</w>
tr end</w>
Sh ould</w>
fre edoms</w>
ausge geben</w>
A th
ä fen</w>
unterschei den</w>
restri cted</w>
S A</w>
A ward</w>
destro yed</w>
Parla ments
Er k
ursprün glich</w>
off ene</w>
Prä sent
spre che</w>
ange passt</w>
Organ e</w>
langfris tige</w>
fair ly</w>
entre pren
does n</w>
Komm un
po ols</w>
steu ern</w>
n on</w>
ab e</w>
sc ene</w>
fir mly</w>
Land es
Is lands</w>
C ra
Vor lage</w>
Per form
wel comes</w>
inv ited</w>
a c</w>
Ster ne</w>
Wi k
D res
interess ant</w>
enab ling</w>
awar ded</w>
Kor ruption</w>
10 0
ni veau</w>
fa x</w>
An lass</w>
A sien</w>
signific ance</w>
defic it</w>
all zu</w>
ut ation</w>
spar en</w>
func tionality</w>
ap ers</w>
W illi
Debi an-
zi pi
eri ode</w>
dienst leistungen</w>
continu ous</w>
Tä tigkeiten</w>
Kris en
Gr ünen</w>
16 .</w>
mod ules</w>
introduc ing</w>
be vor
Dig ital</w>
x el</w>
er hielt</w>
deli cious</w>
S et</w>
Mar ke</w>
H- 0
e at</w>
Situ ated</w>
no tes</w>
g licher</w>
Kultur en</w>
Freit ag</w>
Bevölk erungs
wei ch
poli tically</w>
Befu gnisse</w>
in os</w>
get table</w>
vil lages</w>
kilom et
di ert</w>
demo kraten</w>
Ver arbeitung</w>
z enten</w>
erkenn t</w>
ehr ten</w>
suff ered</w>
na il</w>
R ö
po t</w>
si ty</w>
Sovi et</w>
ß ten</w>
sch m
hei m
Sk ype</w>
sho fs</w>
par ameters</w>
indic ate</w>
dank bar</w>
blo cks</w>
F rü
Cap tain</w>
obstac les</w>
co s</w>
Men ü</w>
Binnenmark tes</w>
zz i</w>
as y</w>
Haushaltsp lan</w>
ungs verfahren</w>
st ern</w>
religi on</w>
konzentri ert</w>
coordin ated</w>
Gerechti gkeit</w>
effizi enz</w>
bein gs</w>
safe guard</w>
k illed</w>
en cia</w>
Ver lust</w>
por tu
ali ties</w>
Ba y
unabhängi gen</w>
Throu gh</w>
S timm
for ni
a .m.</w>
W omen</w>
tä r</w>
in mitten</w>
ev al</w>
O ver
- based</w>
symbo l</w>
gn er</w>
gewähr en</w>
gen e
effizi ente</w>
La w</w>
H under
pati ent</w>
gere ch
Slo ven
Geh minuten</w>
Absch affung</w>
man che</w>
chine sischen</w>
Mi ß
Ger icht</w>
AC P</w>
8 .</w>
in er
enthal tenen</w>
Gef än
m ass
hom es</w>
acti v
Sta ates</w>
Ma in</w>
Aktionsp lan</w>
lat t</w>
j ap
bon us</w>
t less</w>
einzigar tigen</w>
voll ständigen</w>
u pper</w>
re vi
an schließen</w>
Wider spruch</w>
Den k
vi l</w>
ver dienen</w>
gr enze</w>
co ol
ass ur
sch em
s k</w>
ck s
V ul
bisher igen</w>
Wh o</w>
ot ing</w>
in y</w>
estim ated</w>
ans wer
a qu
Wachst ums
ein ma
Gen ießen</w>
ves sels</w>
re marks</w>
vor liegende</w>
pro t
pen alty</w>
Stockhol m</w>
Not es</w>
ô tel</w>
K it
umfangreich e</w>
explo itation</w>
Char les</w>
Anti -
public ation</w>
or ama</w>
jet zigen</w>
hil fre
fähi gen</w>
Valle y</w>
C ir
fe es</w>
einhei tliche</w>
Risi ko
O M</w>
M illenn
langfris tig</w>
ing s
angeb ot
G ö
ur teilung</w>
har dly</w>
au l
Geschm ack</w>
sa ved</w>
hol ders</w>
dis cre
Air bus</w>
sho t</w>
mitglie der</w>
P fer
z auber
wah len</w>
socie ties</w>
prakti sche</w>
muse ums</w>
P läne</w>
cent uries</w>
we ak</w>
l ou
d ness</w>
behaup ten</w>
t ary</w>
mi en</w>
E E
per si
-Sterne- Hotel</w>
zentr en</w>
en ever</w>
ed ral</w>
ali forni
U M
Kop f</w>
Kir k</w>
unfor gettable</w>
G -
t act</w>
se x</w>
ba res</w>
V ater</w>
ten tion</w>
stei gt</w>
V ista</w>
ar bit
muni cip
de posit</w>
contri buted</w>
chec ks</w>
Rom an
Mall orca</w>
speciali st</w>
ada pt</w>
Om bud
mi d-
er gibt</w>
Frie d
sorg ungs
so unds</w>
H O</w>
D un
lus ses</w>
Qu ality</w>
r are</w>
korre kt</w>
compu ters</w>
kön nt</w>
kon figu
tac kl
ph arm
four th</w>
Z eu
Be stä
proto col</w>
gro sse</w>
consider ably</w>
bud gets</w>
A R</w>
sup posed</w>
Vor aussch
zu zu
mi et
en cing</w>
Er wer
fu hr</w>
A M</w>
Ter rit
ab sur
wie gend</w>
ver boten</w>
Sing le</w>
bege g
an schließend</w>
organ ic</w>
kt rum</w>
Wal d
zukünf tige</w>
unabhängi ge</w>
l unch</w>
disa sters</w>
S L
5 7</w>
00 1</w>
di stor
philosoph y</w>
humanit äre</w>
hervorge hoben</w>
G ames</w>
é es</w>
charac ters</w>
adap ted</w>
tre e</w>
emp fangen</w>
beauftrag ten</w>
U T
sa h</w>
p ar</w>
fü ll
erwäh nen</w>
er freut</w>
er re
au to
acc eler
Ur heber
BS E</w>
vereinbar t</w>
s u</w>
hear ing</w>
gewünsch ten</w>
ac tors</w>
Sta ff</w>
jur is
cir cu
ab or
Zei tung</w>
bestimm ungen</w>
Kredit karte</w>
trans mission</w>
lie ber</w>
ker nel</w>
ange kün
H im
ssi g</w>
oper ative</w>
hochwer tige</w>
endor se</w>
über ein
sustain ability</w>
s ach
cl asses</w>
S ob
Comm un
erst mals</w>
colle cted</w>
besonder er</w>
Off en
Minister prä
Bu il
supp lied</w>
stri chen</w>
n one</w>
exclu sion</w>
ernsthaf t</w>
G M
verwal tung</w>
appro ve</w>
Kan ada</w>
A ca
personen bezo
beg eist
H O
leg te</w>
ek tive</w>
Zah lungen</w>
Compu ter
metho den</w>
eu ros</w>
Mär kten</w>
hin gegen</w>
gesch m
ach ing</w>
res ource</w>
militär ischen</w>
öff nung</w>
undoub tedly</w>
p ure</w>
hospit ality</w>
Prof essor</w>
sever e</w>
s cript</w>
k örper
ger ing</w>
ga p</w>
abili tät</w>
Con sul
Aben dessen</w>
Ver halten
Betei ligten</w>
gele genen</w>
iz za</w>
P fle
elec t</w>
del eg
de fe
au stausch</w>
Ri o</w>
Berich ten</w>
10 .</w>
or i</w>
Mut ter
Ander e</w>
über ein</w>
re e</w>
met ro</w>
kor rigi
Sa chen</w>
P on
F eld</w>
expla ined</w>
di r
Z e
Krimin alität</w>
Krieg s
D al
CA P</w>
st sein</w>
is men</w>
W ould</w>
Reser vierung</w>
produc tivity</w>
T ren
every body</w>
cro s
Steu erung</w>
P ul
L en
bür ger</w>
Wirtschafts wachstum</w>
A F
the ory</w>
gemein schaft</w>
exclu ded</w>
Will kommen</w>
Respe kt</w>
C P
sicht bar</w>
m outh</w>
S z
b ach</w>
App lik
ren owned</w>
Stand ort</w>
Perspe ktive</w>
Liz enz</w>
Ent sch
th ilfe</w>
sover eign
militär ische</w>
design s</w>
Vertra ges</w>
M ir</w>
Gemein same</w>
fest zulegen</w>
I ON</w>
sup er</w>
Zu g</w>
Gol d
An stieg</w>
Ger ichts
nach drücklich</w>
Pat ri
D ritten</w>
hy dro
enhan ced</w>
coura ge</w>
Ven ice</w>
t ons</w>
ern t</w>
distri but
col lap
St unden
L ic
Cook ies</w>
ski ing</w>
rel ative</w>
Park plätze</w>
grei ft</w>
Vic e-
Veränder ung</w>
Loc ation</w>
sp here</w>
Eben en</w>
pro xim
k es
concent rate</w>
col um
cell s</w>
R unde</w>
D rei
unterschie dlich</w>
tra vel
accep tance</w>
6 7</w>
ref ers</w>
in j
einge gangen</w>
Regierung schefs</w>
Geschä ft
Austra lia</w>
Ab lehnung</w>
ling u
freund lichen</w>
H at</w>
st öß
S timmen</w>
kontrol lieren</w>
er wer
en on</w>
Volks gesundheit</w>
An kunft</w>
exter nen</w>
Soci alist</w>
Nahrungs mittel
Ar t
ima gine</w>
Lan gu
Hand els</w>
Educ ation</w>
sprech end</w>
Gui de</w>
E p
them ati
A 5-0
krä f
em m
Satur day</w>
Po int</w>
zusammen zu
reich er</w>
umfas send</w>
ätz en</w>
simul tane
ran ging</w>
in ess</w>
flo ors</w>
bro w
W eg
W T
Re d
Kon zer
G ang</w>
Am t</w>
fan den</w>
d ges</w>
comb ine</w>
Region al</w>
Pass wort</w>
n ut
exc ur
r ung</w>
port folio</w>
fest gelegten</w>
cl ause</w>
be danken</w>
B ut
ban k
flä chen</w>
Y ear</w>
V ER
Fre und
Ch eck</w>
ste ten</w>
sched ul
ge plant</w>
an hand</w>
Thail and</w>
trav elling</w>
sel ten</w>
n i</w>
origin ally</w>
deli ber
Ferienwoh nung</w>
remain ed</w>
recogn ized</w>
har t</w>
Qu ellen</w>
Gen eva</w>
A vi
stim ul
indi re
h -
p p</w>
can cer</w>
The ater</w>
Gleich stellung</w>
AID S</w>
ho hem</w>
geeig nete</w>
contri but
con sci
Ur sachen</w>
Is lam</w>
well- known</w>
viol ations</w>
unter sucht</w>
stand s
pre ad</w>
ag ent
p ä
ar med</w>
9 3</w>
um setzen</w>
Rei sen</w>
G am
un fair</w>
wor thy</w>
norm alen</w>
fik ation</w>
alisi erten</w>
por ation</w>
stre t
Commission ers</w>
8 8</w>
tr ends</w>
di erung</w>
Pu tin</w>
Kor re
Hab en</w>
Fr ist</w>
cri p
Bür o</w>
process ed</w>
br ut
T rop
N ext</w>
Di kt
in ev
ger aten</w>
dign ity</w>
K la
über aus</w>
Ä gyp
ga ther
Er st</w>
re st
g ischen</w>
under taken</w>
rech nen</w>
natür liche</w>
einzu führen</w>
arti stic</w>
hi ll</w>
Taus ende</w>
Fam ily</w>
hoff entlich</w>
dis krimin
Ver teilung</w>
g li
analy se</w>
St ability</w>
Be für
li ved</w>
gre en
g gle</w>
samm eln</w>
nütz lich</w>
lo t
der e</w>
beschrän ken</w>
S ä
vorsch läge</w>
re action</w>
fisher men</w>
f ährt</w>
St reit
besor gt</w>
U -
Gesch windigkeit</w>
un ruhi
ger ü
dar gestellt</w>
brie fly</w>
ange wendet</w>
Se ver
RO M</w>
sus pen
komm un
fu els</w>
ass ess</w>
su it</w>
sp a
sicher gestellt</w>
sho wed</w>
fi x</w>
Tour ism</w>
Moder ni
Agent uren</w>
universi ties</w>
nor malerweise</w>
inf rin
ie den</w>
er fordern</w>
ch air</w>
bo ards</w>
App le</w>
schn ellen</w>
Wor t
Cat al
Arbeitsplat z</w>
or dered</w>
W ed
transfer red</w>
qu iry</w>
ong side</w>
hervorra genden</w>
acci dent</w>
mon o
Mr .</w>
Mon t
dr yer</w>
as en</w>
dre am</w>
dr y</w>
si erungs
let ters</w>
leich ter</w>
eh ol
ther mal</w>
pret ty</w>
geleg te</w>
existi ert</w>
elek tr
Inform ation
I P-
Gaz a</w>
ent deckt</w>
di alog</w>
Som e
Pla y
Ä u
g ut
Waff en
är ten</w>
wirtschaf ten</w>
kom fortable</w>
strateg ische</w>
Pl ace</w>
pre siden
Ser bia</w>
Kommission sprä
Gesch en
prin ted</w>
komple tte</w>
investi gation</w>
gesch ichte</w>
gener ations</w>
consul ting</w>
C up</w>
Aus maß</w>
zurück zuführen</w>
wor tern</w>
Pres se
B O
Abhängi gkeit</w>
isl am
se ment</w>
portu gie
S ier
ge fragt</w>
re served</w>
refle cted</w>
belie ves</w>
Konfli kte</w>
son sten</w>
par liament</w>
dar k</w>
Vol kes</w>
Sch on</w>
Mehr wert
CH F</w>
th u
g oo
Geschä ft</w>
Con sequently</w>
Vereinfach ung</w>
Kü sten
J ung
regar dless</w>
politi sches</w>
ausge zeichnet</w>
reli ability</w>
lös ungen</w>
Ra di
Gemein de</w>
Ander erseits</w>
fa ith</w>
enter prise</w>
Vor be
Som it</w>
th umb
strength ened</w>
ge äußert</w>
ent täu
Ma ster</w>
where as</w>
gr o</w>
Rechts staatlichkeit</w>
vor nehmen</w>
re m
incre di
li erten</w>
hier für</w>
c lin
Nachbar n</w>
D O
Aut onom
wahr en</w>
bed ded</w>
Gesch le
Balk an</w>
hei t
CO 2-
4 ,
öffent lich</w>
12 .</w>
mis sions</w>
m ern</w>
in hal
6 3</w>
Nach t
p lic
did n</w>
Par ameter</w>
jo ining</w>
Liz enz
Gel der</w>
schwer en</w>
kre is</w>
13 .</w>
b utes</w>
F an
D ritte</w>
ten -
targe ted</w>
er nen</w>
e ase</w>
Instru ments</w>
wi ld</w>
gesch o
b rech
Wür de</w>
Lat ein
mo vie</w>
foot ball</w>
di versi
k einem</w>
Deut sch</w>
urg ently</w>
f illing</w>
auf gebaut</w>
a ward</w>
S mar
Consu mer</w>
UN ES
So l</w>
Program mi
Passa gi
op hi
ste te</w>
ob o
ment ari
be völk
bath rooms</w>
L ok
re store</w>
hei ßen</w>
swit ch</w>
nieder län
mo vements</w>
Me eting</w>
1 1
vi c</w>
um zu
produ zieren</w>
geprä gt</w>
Ombud sman</w>
sub sequent</w>
sp ei
her stellung</w>
any where</w>
Schwei zer</w>
Cast le</w>
s oph
norm ally</w>
T or</w>
Islam ic</w>
mutz ung</w>
amaz ing</w>
am ed</w>
Küh l
As sozi
verhand lungen</w>
ter ing</w>
fre ely</w>
en ge</w>
S lowak
ver weisen</w>
P las
Bes ei
form ats</w>
d ä
ut zutage</w>
syn chron
li schen</w>
feh l</w>
ber ichten</w>
Imp le
Euro zone</w>
ra tion
fem ale</w>
Parla mente</w>
Last ly</w>
Ber e
wa ffen</w>
n am</w>
Umweltsch utz</w>
T rin
Pro ject</w>
Er forder
Bei de</w>
Alli anz</w>
dri ven</w>
Bl ut
so genannten</w>
re volu
gra d</w>
els in
Währungs union</w>
Plan eten</w>
suffici ently</w>
is lat
ir ischen</w>
be zahlt</w>
Lei tung</w>
ta il
Ver schie
Smo king</w>
well ness</w>
effici ently</w>
Registri erung</w>
E P</w>
sich tsp
restruc turing</w>
gest altung</w>
de v
belie f</w>
appropri ations</w>
Dar stellung</w>
zugr unde</w>
et abli
equi valent</w>
char ak
Verhalten s
L AN
8 0
anti cip
ben de</w>
Re chten</w>
ti m</w>
s ought</w>
gesch ätz
Zu ständi
Fran zö
lich keits
Di am
symp ath
ein gestellt</w>
Hand lungs
Doku menten</w>
Öff nung</w>
qualit ativ</w>
G ir
Fak tor</w>
p her
bra chte</w>
Mark en</w>
z eln</w>
rechtzei tig</w>
re stored</w>
C olo
ment are</w>
Sp ie
H us
F öder
h te</w>
Wochen ende</w>
Bes timmung</w>
unter bro
erst klassi
co des</w>
atta ched</w>
Belgi an</w>
ir re
gesetz lichen</w>
flu g</w>
comp act</w>
Zah lung</w>
EU- Mitgliedstaaten</w>
Abgeord net
vor bei</w>
techn isch</w>
re construction</w>
fähi ge</w>
conven tional</w>
Wirtschafts krise</w>
H elsin
rel ates</w>
k üh
Staats an
Ent spannung</w>
ra id</w>
me al</w>
fro h</w>
erweiter n</w>
Eing ang</w>
Z ut
Yu gosla
satis fy</w>
pl astic</w>
j ac
conc er
au dio
R ab
J ack
pl ates</w>
ge stärkt</w>
ass embly</w>
8 2</w>
angemessen en</w>
Ver lauf</w>
M A</w>
Americ ans</w>
neighbour ing</w>
internation ally</w>
be hält</w>
ar d-
akti v
D on</w>
cir cul
ver n</w>
r ut
i Phone</w>
at z</w>
Te ams</w>
P ack</w>
tra cks</w>
mbo l</w>
inten ds</w>
empfoh len</w>
Qu elle</w>
bir th</w>
ar re
st an</w>
pro ch
fest en</w>
en erg
P il
stu ff</w>
pil lar</w>
ent gegen</w>
d ella</w>
colle ct</w>
Leg isl
Inter nationale</w>
At tra
cap itali
arbei tete</w>
ag a</w>
Be arbeitung</w>
produc es</w>
per cent
h ast</w>
ch ie
Todes strafe</w>
Rück kehr</w>
A li
zu kommen</w>
vier tel</w>
vi erten</w>
sto ß</w>
sha dow</w>
gen o
feder al</w>
Voraussch au</w>
Spit zen
O l
9 4</w>
ti ll</w>
statt findet</w>
kontrol liert</w>
B in
T ests</w>
Pap ier</w>
Gep äck
ökonom ischen</w>
mitt lung</w>
enter ing</w>
stärk ere</w>
haf tet</w>
part ments</w>
T ages</w>
Piaz za</w>
EC B</w>
Bibli othek</w>
A ri
over looking</w>
h i</w>
S eri
Minu te</w>
C ot
sel ber</w>
us age</w>
gui ded</w>
bur gh</w>
Dre h
wes enheit</w>
stat e-
genau e</w>
cul tures</w>
Web -
Ro ad</w>
Kon g</w>
H ong</w>
in t-
ürz t</w>
propor tion</w>
p it
condi tioned</w>
Den mark</w>
6 2</w>
se u
letz ter</w>
individu ally</w>
Georgi a</w>
par t-
lo h
Spiel en</w>
S W
Premi er
vi es</w>
manag ing</w>
d lichkeit</w>
up grade</w>
every where</w>
ed -
b o</w>
Proz ess
Proto col</w>
Besei tigung</w>
u x</w>
ten e
stim mi
ri si
Groß teil</w>
w ash
sovereign ty</w>
re mark
U p</w>
T E</w>
ti er</w>
si ghts</w>
Stuttgar t</w>
Spei sen</w>
wach senden</w>
gro ssen</w>
Ti bet</w>
Tele kommunik
K ey
under ground</w>
Finanz krise</w>
B e</w>
sen ken</w>
vorsch lagen</w>
lear ned</w>
ak s</w>
ad ds</w>
P hän
L A</w>
Institu t</w>
Haupt bahnhof</w>
kon textu
Hom epage</w>
Hoch schul
treat ments</w>
auffor dern</w>
am t</w>
Christ mas</w>
lei dung</w>
an zeigen</w>
ackno wledge</w>
spie gelt</w>
oper ates</w>
gel esen</w>
Straß burg</w>
N ero</w>
Inn enstadt</w>
zerstör t</w>
se es</w>
Hau t</w>
Gener ationen</w>
th ou
con textu
ec ological</w>
beg riffen</w>
Or te</w>
Kontin ent</w>
Ge werk
Erinn erung</w>
uni form</w>
prof its</w>
tax i</w>
son g</w>
in ated</w>
Min im
ei gh
b right</w>
ar ising</w>
Anwen der</w>
pharm ac
a .
Masch ine</w>
Ma xim
Custom er</w>
bel ong</w>
Er haltung</w>
soph istic
län dliche</w>
Re present
tie f</w>
Ther ap
Di plom
digit alen</w>
zo g</w>
vor aus</w>
eng ines</w>
á n</w>
manufac ture</w>
intelli gent</w>
über winden</w>
b la
ap s</w>
vers ary</w>
fas cin
dies bezüglich</w>
V an
Mechan ismen</w>
Län ge</w>
Über blick</w>
ma x</w>
gegenwär tige</w>
ge wer
coher ent</w>
mi stake</w>
m eter</w>
hy th
derzei tige</w>
demo cra
Unter kategorien</w>
S t</w>
L ern
Ho he</w>
Dialo gs</w>
fin ed</w>
enor me</w>
deep ly</w>
an erk
prec e
meaning fully</w>
am i</w>
ing er
griech ischen</w>
Person en
Deb atten</w>
L es</w>
Gra fi
9 1</w>
8 9</w>
P ur
Kon ver
bewäl tigen</w>
Op position</w>
Mr d.</w>
w ör
up gra
geh ei
ver wei
Sto ck</w>
uls ory</w>
kri eg
ali stischen</w>
roman tic</w>
re ti
pan el</w>
en dar</w>
Auf zug</w>
Resol ution</w>
E mail</w>
Bu g
Berlin er</w>
ft mals</w>
Mon tag</w>
ste am</w>
son gs</w>
lo gical</w>
Spezi al
S äu
M äd
6 9</w>
wor st</w>
mit zu
us -
fa chen</w>
dafri ka</w>
Berei tschaft</w>
Ar mee</w>
lä dt</w>
bin den</w>
Su dan</w>
eff ektive</w>
Mi et
ver fahrens</w>
sh uttle</w>
oper ated</w>
cu e</w>
Zu verlässi
Wei h
Ha ve</w>
D ingen</w>
Berichterstat ters</w>
li able</w>
lei sch
conveni ence</w>
Niederlan den</w>
D ör
war ning</w>
spar tei</w>
sec onds</w>
lin ken</w>
geb äu
S li
K openhagen</w>
Egyp t</w>
E s
A sian</w>
sub- categories</w>
refle cts</w>
konkre t</w>
integri erten</w>
in o
geräum t</w>
pri me</w>
en ergie</w>
O t
Flor enz</w>
rech tlich</w>
p o</w>
l or
C Ds</w>
Bran che</w>
t les</w>
stra sse</w>
ha z
gh äfen</w>
dam ages</w>
no ver</w>
illu str
Fahr t</w>
te ch</w>
rä um
de ad</w>
Ver sorgung</w>
Sch loss</w>
B ord</w>
sp ite</w>
Str and
unter suchen</w>
geographi cal</w>
pf ung</w>
co ol</w>
Sicherheits politik</w>
highligh ted</w>
Samm lung</w>
Blu e</w>
Prä sen
7 7</w>
h ec
C ab
Ber n
grammati cally</w>
chec ked</w>
Sier ra</w>
O K</w>
Ge fan
juris di
heal th
a sion</w>
Su ites</w>
Cor porate</w>
exec ution</w>
Lu f
Expl orer</w>
Bu dd
Aus einander
tra t</w>
stric tly</w>
contextu ally</w>
alco hol</w>
14 .</w>
su perior</w>
sta yed</w>
ha ir
affec ts</w>
Schlussel wortern</w>
S ohn</w>
Phi losoph
Sy mp
her auszu
grammati sch</w>
Mot or</w>
Kön ig</w>
Benutz ung</w>
gan z
Kon zent
Kompet enz</w>
urop ä
ul tra
neg ativen</w>
E qu
perfe kte</w>
komp ati
den jenigen</w>
Hinder nisse</w>
kontextu ell</w>
A h
gar age</w>
beglei tet</w>
Schlussel wort</w>
Schlussel phrase</w>
air ports</w>
Mechan ismus</w>
Luxem burg</w>
man ual</w>
edi ted</w>
Schön heit</w>
Poli zei
Kateg orien</w>
Hin weise</w>
ges tie
exec utive</w>
ergän zt</w>
clari fy</w>
Fern sehen</w>
Cas a</w>
kli mati
hol ds</w>
eng aged</w>
äl teren</w>
t ories</w>
str o</w>
sor ge</w>
lan ger</w>
at o
S C
tre ff
res que</w>
reno viert</w>
multin ation
gar ten</w>
em b
be enden</w>
E A</w>
Be wus
An y
6 1</w>
wa ge</w>
sle ep</w>
enti ves</w>
An hör
thre ats</w>
integr ate</w>
Tex t
- European</w>
territ orial</w>
he ading</w>
c -
Sen kung</w>
Kaff ee</w>
mar ine</w>
E vents</w>
re stor
panoram ic</w>
ar k</w>
Comm on</w>
r as</w>
present ing</w>
n ine</w>
roo ts</w>
reit en</w>
and t</w>
vari ed</w>
r ally</w>
Zah l
G ay</w>
y s
verk nü
mittler weile</w>
caus ing</w>
bein halten</w>
Ju gend</w>
12 .00</w>
pra g
Jahrzeh nten</w>
t ü
ra dio
gen es</w>
erzeu gen</w>
wal d</w>
m s
c i</w>
Zusammen halt</w>
tra gt</w>
pro vince</w>
edi tion</w>
W all
Masch inen
Indi an</w>
ul en</w>
tei ls</w>
ph ones</w>
gül tig</w>
et a</w>
K öl
fo x</w>
Dem o
Cul ture</w>
B ed</w>
ro lle</w>
ant es</w>
a w
proz esse</w>
lo ser</w>
gere gelt</w>
fest zustellen</w>
fav ourable</w>
wirk lichung</w>
klassi schen</w>
ess ed</w>
comp ulsory</w>
Kohäsions politik</w>
ut most</w>
gen s
angewand t</w>
Muse en</w>
Mand at</w>
H U</w>
m ere</w>
europä isches</w>
U L
E v
Det ail</w>
&apos; m</w>
über lassen</w>
hier zu</w>
B 5-0
u li
lossen heit</w>
inte gra
high lights</w>
Sob ald</w>
I K
t um</w>
refer ring</w>
gleich ermaßen</w>
ach ed</w>
Oper a</w>
Ober fläche</w>
Ma z
Fis her
Ö l</w>
graphi cs</w>
gn is
Ter r
Tab ak
Gali le
Be achtung</w>
9 00</w>
twi ce</w>
t ings</w>
prakti schen</w>
ex o
eventu ell</w>
ende av
T ür</w>
Helsin ki</w>
B R
Aca de
T onnen</w>
Aut or
Amon g</w>
angeneh m</w>
Ber g</w>
A rea</w>
gnü gen</w>
acci dents</w>
Augen blick</w>
won ach</w>
si n</w>
geh andelt</w>
consi ders</w>
Con tent</w>
An dal
se kre
pres sing</w>
phenom enon</w>
k ta
Mut ter</w>
wesent licher</w>
sh aush
jud g
incorpor ated</w>
Jugen dlichen</w>
hon our</w>
Mit entschei
sto res</w>
K äufer</w>
c lar
Veranstal tungs
Rech t
Aut os</w>
in ely</w>
Sch wan
Pf ei
Ergeb nissen</w>
Bedürf nissen</w>
verletz ungen</w>
unmittel barer</w>
sen s
mu sical</w>
lic ens
M aga
In hal
ad y</w>
Dan ish</w>
reich hal
quot as</w>
besu cht</w>
C ar</w>
versch är
s low
occur red</w>
T el</w>
stei gern</w>
medic ine</w>
cho ices</w>
U sing</w>
Sch reiben</w>
illeg ale</w>
c ell</w>
an sprechen</w>
L icht
so il</w>
for ts
fest legen</w>
G or
D ring
angen ehmen</w>
aktu ell</w>
Wes entlichen</w>
K ern</w>
wi des
teach ing</w>
offizi elle</w>
fac tory</w>
di eren</w>
Vertre tern</w>
pic k</w>
he ads</w>
ali tion</w>
P ho
7 3</w>
ti scher</w>
insi st</w>
harm ful</w>
Über tragung</w>
anzu bieten</w>
Pat ent
Indu stry</w>
res sen</w>
len ken</w>
fahr t
explan ation</w>
essen tially</w>
Stär ke</w>
hi king</w>
aus gaben</w>
Stre cke</w>
Residen ce</w>
zw ingen</w>
land s
consequ ence</w>
An meldung</w>
encoura ged</w>
bewahr en</w>
avi ation</w>
m ouse</w>
hal tungs
ad ding</w>
I W
ign s</w>
eigen er</w>
ast er</w>
Wirk samkeit</w>
Sub ject</w>
sch mer
Ver sammlung</w>
S CH
Co operation</w>
Aus wei
spezi alisiert</w>
prospec ts</w>
me ets</w>
me als</w>
g no
con vention</w>
candi dates</w>
enen falls</w>
Ver lu
V IS</w>
Mil ch
ver letzt</w>
regul ated</w>
regel ung</w>
An nehm
Dä ne
C ou
Finn land</w>
türk ischen</w>
berech net</w>
Z erst
Proje kts</w>
In ten
A ma
kümm ern</w>
herr lichen</w>
C el
war tet</w>
n ative</w>
gradu ally</w>
stu dent</w>
ini eren</w>
Flug haf
stamm t</w>
pus h</w>
er wor
c at</w>
Regu lierung</w>
C D
S E</w>
F our
B üh
tax pa
so eben</w>
re porting</w>
entscheiden den</w>
dec line</w>
bi an</w>
Wohn zimmer</w>
Tre aties</w>
Tau ch
v is</w>
humanit ären</w>
Vice- President</w>
Un der
S ul
Profession al</w>
lässi g</w>
Viet nam</w>
Bör se</w>
geschi ckt</w>
st ories</w>
gro wn</w>
Herb st</w>
scienti sts</w>
f ed</w>
Mo dule</w>
B ag
7 6</w>
thre e-
sk a</w>
i o</w>
conver gence</w>
combin es</w>
Dat um</w>
AR E</w>
wech seln</w>
finanzi eren</w>
boo ked</w>
be fasst</w>
ak te</w>
agen ts</w>
Potenzi al</w>
Hö chst
Autob ahn</w>
succ eeded</w>
stam men</w>
ex act</w>
D E-Fraktion</w>
il ater
Ham as</w>
Administ ration</w>
stun ning</w>
em bar
Ver wirklichung</w>
- up</w>
surpr ised</w>
sitz en</w>
shi ft</w>
künst ler
ur laub</w>
sh el
re pair</w>
gekenn zeichnet</w>
J a
Besu chen</w>
de lic
L ü
An onymous</w>
f loo
Funda mental</w>
thumb nail</w>
fe et</w>
Apparte ments</w>
beg ins</w>
Nachhal tigkeit</w>
Invest oren</w>
sti ck</w>
in folge</w>
ex zell
Verbraucher schutz</w>
Führ er</w>
spä t</w>
gefähr det</w>
eng age</w>
ei te</w>
Aus bildungs
30 .</w>
Er satz
A ktions
á s</w>
per mission</w>
Umwelt fragen</w>
Pan oram
Dire kt
wirk liche</w>
tn issen</w>
i Po
er ship</w>
ar do</w>
a ders</w>
Unter künfte</w>
Kandi daten</w>
Energie effizienz</w>
tro ck
fun ktion</w>
ab end</w>
Zü rich</w>
Be grün
Ab stimm
ob served</w>
d opp
col ors</w>
acqui red</w>
R enn
Man u
Betrie be</w>
produ kten</w>
d ently</w>
bedeut enden</w>
Außen -</w>
ru pt</w>
Innov ationen</w>
F esti
se ats</w>
rep utation</w>
ke ys</w>
gro ss</w>
gelan gt</w>
ge fasst</w>
D au
au ßen</w>
ul f</w>
her z
an zunehmen</w>
D ass</w>
A part</w>
zi one</w>
günsti ge</w>
S w
Aus arbeitung</w>
ri ding</w>
P resse</w>
N or</w>
yst em</w>
un ab
ak ia</w>
resul ted</w>
rec re
cul tiv
Techn ologi
P A</w>
Lit er
vari able</w>
sp it
s son</w>
oper ator</w>
le hr
im men
Verzeichn is</w>
Nichtraucher zimmer</w>
H D
g lied</w>
UN O</w>
Mon tene
re al
gewäh lten</w>
Gi bt</w>
speciali sts</w>
ab sta
pro sec
air e</w>
Re par
Gol den</w>
zi a</w>
atten d</w>
Se e
zeichn ungen</w>
ven ues</w>
prison ers</w>
pass ing</w>
b lau
Bü rokrati
Busin ess
maß geb
dat eien</w>
b y-
air lines</w>
Vermitt lungs
To p</w>
Mes se
schwieri ge</w>
pro min
ch ester</w>
Re z
pu rely</w>
Spa zier
Je doch</w>
proble m
for th</w>
all eng
Mar k</w>
L esen</w>
Kon gres
Feh l
Bu ff
Auf trags
recor ds</w>
fas z
bring ung</w>
ausgewäh lt</w>
amen ded</w>
Wan del</w>
E t
Doku mentation</w>
Col lege</w>
program men</w>
je denfalls</w>
Sa ison</w>
Fur ther</w>
bro ken</w>
ar ity</w>
Sm all</w>
Gemein schaften</w>
Eu ch</w>
Flu ghäfen</w>
particip ating</w>
müs sten</w>
inter n
fav ou
ergän zen</w>
mäß ige</w>
b te</w>
Proz eß</w>
Pflan zen</w>
vor gelegten</w>
be merk
Her z</w>
Fre und</w>
w ski</w>
War craft</w>
B ä
4- star</w>
p ace</w>
fo ssi
diplom atic</w>
c as</w>
Wirtschafts politik</w>
Ur teil</w>
H z</w>
vor liegen</w>
und ry</w>
quali ties</w>
is co</w>
hy po
g am
con fron
L or
Bab y
wides pread</w>
speciali zed</w>
müs ste</w>
virtu ally</w>
neh me</w>
cas ino</w>
Stunden -
Ber ge</w>
Arbeit nehmern</w>
App lic
kilomet res</w>
ein gebracht</w>
b at</w>
li v
disp ute</w>
bo ats</w>
are st</w>
Staats -</w>
Ver trag
ung alo
sur prise</w>
ge liefert</w>
Te am
I ran
EZ B</w>
C ru
hol e</w>
ein stimmi
cre w</w>
Wei l</w>
M S
proz eß</w>
la g
jo in
develop ers</w>
T ot
vor zunehmen</w>
str ing</w>
min er
Rent en
Gipf el
zi ger</w>
st on</w>
op ol
Sad dam</w>
zi vi
cat ch</w>
bewer ten</w>
ge führte</w>
Rei ch
w as
tern s</w>
r h
Acade my</w>
unter breit
sp häre</w>
rec ording</w>
li s</w>
j k</w>
he sit
at orium</w>
Zyper n</w>
Le on
Argu mente</w>
ro t
pr ison</w>
po t
got ten</w>
gen eh
N on
E W</w>
betri eb</w>
Netz werk
For m
er staun
b are
umini um</w>
pre serve</w>
it ar
st ran
s essions</w>
ra chten</w>
r l
pictu resque</w>
T A</w>
ster ben</w>
Well ness</w>
T ieren</w>
Lei p
Acc ess</w>
lay out</w>
Entfer nung</w>
repe at
organ ise</w>
nar row</w>
boo st</w>
6 0
z te</w>
se eks</w>
beeinflus sen</w>
Spei cher
Kamp agne</w>
Auth ority</w>
ur gency</w>
stru ggle</w>
min ing</w>
medic ines</w>
e o</w>
bi eren</w>
achie vement</w>
Betre uung</w>
er richtet</w>
7 8</w>
y ard</w>
typ ischen</w>
de a
Berei ts</w>
verw öh
uni or</w>
enfor cement</w>
K lu
Annehm lichkeiten</w>
trans fers</w>
tel ecomm
entfer nen</w>
Plen ar
Cha ir
An sprüche</w>
aff ir
Z ins
sophistic ated</w>
mis s</w>
frü hen</w>
benach tei
P aci
li erte</w>
2 nd</w>
si scher</w>
schem es</w>
p ast
olog isch</w>
dist ur
confer ences</w>
W en
pro jec
per mit</w>
kn app</w>
inc entives</w>
hi dden</w>
Direc tor</w>
Apparte ment</w>
shor tly</w>
kur s</w>
in her
an wenden</w>
Alex ander</w>
lo ading</w>
clo sure</w>
betri eb
Res ult
se ktors</w>
langfris tigen</w>
comp res
ar ray</w>
Ab fall
Übri gen</w>
w ahr</w>
stä tigkeit</w>
stechn ik</w>
k as
implic ations</w>
der te</w>
Invest ment</w>
Mar t
er hol
en cies</w>
an sehen</w>
M ili
Dü ssel
3 50</w>
gewi d
gegeb enenfalls</w>
T al</w>
Flä che</w>
zieh ung</w>
negoti ation</w>
Wiederauf bau</w>
Tra in
n ers</w>
to x
rati fication</w>
o ftmals</w>
m acro
läufi g</w>
cam p</w>
Z im
ro of</w>
Wed n
Ver mö
Por to</w>
G R
A z
de fiz
an z
sub jec
sch were</w>
re tain</w>
gen z</w>
aus üben</w>
Di agno
teach ers</w>
Weiter entwicklung</w>
Ven edi
M ass
Ge winn
net z</w>
navi gation</w>
B om
will ing
qu et</w>
ch alleng
Sou verän
Por tal</w>
Li thu
Imp ul
ra in</w>
bewu ßt</w>
ali a</w>
Ci vil</w>
Internet zugang</w>
verring ert</w>
tro ops</w>
hop es</w>
deck ung</w>
be antwortet</w>
Hol z</w>
v able</w>
gr ünen</w>
gab en
Uni ons
Pen sion</w>
vor gestellt</w>
territ ori
re venue</w>
produc er</w>
a j
Har d
geschlossen en</w>
all ing</w>
Religi on</w>
N az
Moderni sierung</w>
Kap ital</w>
Doppel zimmer</w>
te x</w>
r ent
m ein
gi k</w>
Ver fol
Rä ume</w>
L eh
über wachen</w>
construc ted</w>
Ter ms</w>
vi era</w>
schedul ed</w>
poli s</w>
gra ben</w>
ei ll
direc tor</w>
ch rist
be aring</w>
b lin
Urlau bs
ver stehe</w>
profession elle</w>
dump ing</w>
be zü
en vis
C L
y ards</w>
verwen deten</w>
us alem</w>
str and</w>
min or</w>
ich tet</w>
elimin ate</w>
Con ver
19 th</w>
ö ch
Stor age</w>
Hä user</w>
ri te</w>
mer kt</w>
kno w-how</w>
co ck
associ ations</w>
P hy
Er richtung</w>
Con c
percent age</w>
cle ar
Glau ben</w>
Drit tel</w>
tri g
der ly</w>
dec ade</w>
besei tigen</w>
Se ktors</w>
7 4</w>
ut ung</w>
sp len
Män gel</w>
F OR
5 00
ous ness</w>
li ger</w>
geb lieben</w>
ein geleitet</w>
Präsen z</w>
Ni kon</w>
5 ,
Ru ß
y ear
N ok
wech s
stell ern</w>
bil d
E din
dig ungen</w>
as sum
Mo dul</w>
Gesetz es
op ens</w>
er teilt</w>
Entwick ler</w>
well en
sch reck
är er</w>
n ic
in k
govern ing</w>
g ori
entrepren e
Sonn tag</w>
Grund lagen</w>
pro pri
it ly</w>
enn ess</w>
ba y</w>
Journ alisten</w>
lich te</w>
fol der</w>
communic ate</w>
ar men</w>
stitu tion</w>
magaz ine</w>
land wirtschaftlichen</w>
am in</w>
Kooper ations
new sletter</w>
Er st
sta ying</w>
neighb ours</w>
Wer den</w>
So und
Me d
ic als</w>
hin weg</w>
as signed</w>
Vor stellungen</w>
Dan ach</w>
recogn ize</w>
kl asse</w>
Str ände</w>
T us
Inter governmental</w>
zer ti
hervorra gend</w>
f at</w>
cal m</w>
Sy mbol</w>
Oli ven
ö l</w>
d ying</w>
MP 3</w>
Elek tron
un necessary</w>
b eln</w>
at om
Chi le</w>
Ash ton</w>
E th
Bas el</w>
ö tz
Vereinig te</w>
ri gor
hom o
Al lah</w>
ver sammlung</w>
pi lot</w>
geb ühr
An pass
repe ated</w>
Softwa re-
Jo int</w>
Fot o
C P</w>
sor ry</w>
multilater al</w>
in adequate</w>
evi dent</w>
Wohn ungen</w>
T amp
Kon vent</w>
arbit r
P sy
F luss</w>
verhäl tnis</w>
ri ft</w>
kosten lose</w>
gere chte</w>
feh len</w>
az z</w>
auf bauen</w>
Flor ence</w>
parlamentar ischen</w>
o live</w>
ni ght
Ver sicherungs
Saf e</w>
Q U
E tik
dep lo
W W
8 7</w>
gä ste</w>
fe wer</w>
Bur ma</w>
s timmungen</w>
mehr fach</w>
lo aded</w>
ht ml</w>
ent liche</w>
con stitutes</w>
be steh
Däne mark</w>
woo den</w>
b uses</w>
au ern</w>
S P</w>
struktu rel
Tra vel</w>
Intel li
zah lungen</w>
an gehen</w>
li t
Rechn er</w>
Gemein schaft
man chen</w>
gi a</w>
Ein en</w>
so ever</w>
shi p
gi g</w>
bu g</w>
Cu ba</w>
thir d-
fik ationen</w>
exten ding</w>
S earch</w>
im peri
Oper ation</w>
B our
tru m</w>
deser ves</w>
U R</w>
Kat alog</w>
Fahr er</w>
timet able</w>
cast ing</w>
Re vision</w>
O EC
Fire fox</w>
Emp loyment</w>
occ o</w>
fo rec
Ti cket</w>
v ar</w>
ges etz</w>
ga stronom
ein sei
to ward</w>
do w
dis count</w>
c rises</w>
um gehen</w>
sch ritt
fül lt</w>
Energi equ
sh ore</w>
s now</w>
berich terstat
Verbrau chern</w>
N er
y cle</w>
maxim al</w>
l len</w>
Sam stag</w>
Rich ard</w>
g ast
SA P</w>
Al bum</w>
Akte ure</w>
woh n
sto ck
initi ally</w>
fahr ens
di en</w>
desi rable</w>
an en</w>
Wa sch
. net</w>
stan zen</w>
sol ved</w>
relation ships</w>
gleich heit</w>
Ty p</w>
St amm
Nig eria</w>
än e</w>
pi ed</w>
ou ts</w>
be arbeiten</w>
b ited</w>
aufzu bauen</w>
at ur
Zimmer beschreibung</w>
t ant</w>
moder nis
al ongside</w>
Mexi ko</w>
Har dware</w>
sol ar</w>
den d</w>
O ut</w>
ze go
nut ri
hill s</w>
gen eti
b ten</w>
Wil d
ruhi ge</w>
le ute</w>
in door</w>
clo ck</w>
N izza</w>
willing ness</w>
inter ne</w>
EN T</w>
ä le</w>
kol le
grenzüberschreit enden</w>
en ne</w>
cap abilities</w>
8 1</w>
vol les</w>
italien ische</w>
finan ced</w>
exam ination</w>
er hoben</w>
di al</w>
c ting</w>
appro aches</w>
ho p</w>
Paci fic</w>
Kön nen</w>
K lo
ver bindung</w>
radi k
Fre qu
län gst</w>
consider ations</w>
be unruhi
W ör
Aus bau</w>
v acc
expen se</w>
digit ale</w>
com position</w>
bi tions</w>
Wedn esday</w>
G B
sol di
s z
gemein sames</w>
P atten</w>
Mäd chen</w>
smo oth</w>
schaf tlicher</w>
ig no
comple tion</w>
Vi si
Rati fizierung</w>
Amerikan er</w>
T ok
E valu
miet ung</w>
k le
anni versary</w>
Um strukturi
T ruppen</w>
S tern
Kom mentare</w>
super b</w>
reagi ert</w>
neu n</w>
kenn t</w>
inst antly</w>
ein igt</w>
ar ische</w>
Tradi tionen</w>
Her zego
Anmerk ungen</w>
gesell schaftlichen</w>
campa igns</w>
bus y</w>
Reser ve</w>
ra k
defin ieren</w>
cul p
ch airs</w>
Zu ge</w>
Wik ic
Pal ma</w>
Constitu tional</w>
25 .</w>
wa days</w>
tho tel</w>
moder ni
inspi red</w>
hin zu</w>
bed ürf
W erten</w>
com men
betra cht</w>
be fu
addres sing</w>
Spezi alitäten</w>
Sch o
Obje kte</w>
Nutz ungs
Co ck
thre sh
o v</w>
Z war</w>
wh er
mei ster</w>
enn t</w>
y iel
timedi a</w>
k lear
anträ ge</w>
Sch atten
v re</w>
may be</w>
Fisher ies</w>
F ind</w>
up- to-
serv ative</w>
offen bar</w>
k ür
cli cking</w>
ver steht</w>
chti gkeit</w>
So und</w>
S eg
Nok ia</w>
Hum an
moment an</w>
ep ing</w>
m ische</w>
So wohl</w>
S har
F I</w>
De partment</w>
tsp rin
instru mente</w>
gir ls</w>
bran che</w>
Sach ver
I X</w>
Auf lösung</w>
isti sch</w>
b aus</w>
studi ed</w>
j i
char m</w>
Vorder grund</w>
Ägyp ten</w>
gek ehrt</w>
arran ged</w>
N ehmen</w>
D R
Bil dern</w>
ung laub
stat ing</w>
schwe dischen</w>
o red</w>
ft -
ex posed</w>
concent ration</w>
aus ser
Ten den
G AP</w>
Ac count</w>
refer ences</w>
chap ter</w>
ch ts
and al
prefer red</w>
ei ved</w>
the ken</w>
An betracht</w>
zu gs
in tu
ge sichert</w>
f lat
Mark en
L ernen</w>
Ab lauf</w>
8 3</w>
frequ ency</w>
enjo ys</w>
electri cal</w>
Bl ack
Soci ety</w>
Ma ke</w>
ing redi
deb ating</w>
UNES CO</w>
Inter nal</w>
Fot ogra
ier ungen</w>
h ase</w>
eb o
co decision</w>
be er</w>
W ä
Re ad</w>
-- --
un ilater
gener ell</w>
cr yst
certi fied</w>
Up dates</w>
F ull</w>
Aspe kten</w>
wick lung</w>
thor ough</w>
ro ll</w>
lö schen</w>
ge ograph
belie ved</w>
Trans fer</w>
Kon vention</w>
alisi erte</w>
P ir
ü bung</w>
plan en</w>
nec essi
Val encia</w>
M .</w>
I M</w>
Bestä tigung</w>
Auswei tung</w>
po o
europ a
adi se</w>
L T</w>
zu fügen</w>
palästinen sischen</w>
b lan
aci o</w>
Sci ence</w>
ök ologischen</w>
ver öffentlichen</w>
ta i
st al
Qu ell
Niederlan de</w>
Betri fft</w>
sichti g</w>
mi ß
jun ction</w>
dele te</w>
We gen</w>
Ser bien</w>
viol ation</w>
pl ötz
d än
compla ints</w>
bü rokrati
Con nec
worl d-
hilfre ich</w>
and in
IC H
Gen au
Erwachsen e</w>
5- 00
welt weite</w>
keines wegs</w>
geni essen</w>
betei ligten</w>
as sen
vol lem</w>
h ur
cont am
ti ment</w>
mär kten</w>
aus gehen</w>
ak u
Er reichung</w>
20 15</w>
wäch st</w>
trav ellers</w>
gori th
N G</w>
Geb ühren</w>
Chil dren</w>
schwer wie
Or ten</w>
sta in
ol dest</w>
genu inely</w>
Ge wäs
sus pec
par tial</w>
gesu cht</w>
exam ined</w>
emp ty</w>
effizi enter</w>
comm it</w>
Vorsitz enden</w>
K DE</w>
with draw</w>
sign ing</w>
li fe
archit e
a res</w>
Vor rang</w>
Se kunden</w>
er a
n utzt</w>
Met ro</w>
t onn
su ited</w>
s é</w>
ingredi ents</w>
en ger</w>
chn ungen</w>
Kenn zeichnung</w>
schrift liche</w>
per su
pak et</w>
lief erung</w>
form ing</w>
Jer usalem</w>
techni que</w>
intensi v</w>
bo ar
Rechn ungs
Camp ing
ge statten</w>
found ations</w>
chair man</w>
Slov akia</w>
regi onen</w>
expres s
Wissenschaft ler</w>
H D</w>
su ms</w>
se as</w>
own ership</w>
j um
er teilen</w>
Sever al</w>
fir st-
Un s</w>
Immobili en</w>
F assung</w>
24- Stunden-
where by</w>
ob serve</w>
gere cht
Wider stand</w>
Aus sage</w>
wer ks</w>
ut en
hochwer tigen</w>
dies bezü
gefähr lich</w>
J on
men tierung</w>
Spit ze</w>
Ins gesamt</w>
Über gang</w>
tra ined</w>
mach in
condem n</w>
betri ebe</w>
Statisti ken</w>
Edin burgh</w>
Behör de</w>
üb lichen</w>
th ri
op enness</w>
her stellen</w>
geb ot
bel eb
Be stellungen</w>
pl as
mäß igen</w>
druck s
win d
Wich tigkeit</w>
Sk y
zwei tens</w>
sü dlichen</w>
1. 5</w>
günsti gen</w>
b ought</w>
Ri viera</w>
G A</w>
eh lt</w>
Men ü
ä ter</w>
tn ess</w>
se emed</w>
op tional</w>
hei ght</w>
chem ische</w>
accoun ting</w>
Tari fa</w>
Erleb nis</w>
war t</w>
vi ll
strö m</w>
regi erung</w>
dest o</w>
Gre ens</w>
Ein es</w>
Ar men
respec ts</w>
gewöhn lich</w>
C r
vo s</w>
radi cal</w>
exc ell
cancell ation</w>
L om
Bü cher</w>
v ary</w>
la im
fortun ate</w>
el and</w>
t ut
p g</w>
WT O-
S ens
L ine</w>
Fil me</w>
sha re
gegen über
di tions</w>
att ack
advent ure</w>
Zw ischen</w>
O therwise</w>
Mark et
Aus rüstung</w>
um gehend</w>
mi xed</w>
g on</w>
Stabili täts
O LAF</w>
krä ften</w>
fal se</w>
econom ically</w>
aktu alisiert</w>
Po ker
t lichkeit</w>
kon sequent</w>
beabsichti gt</w>
Mor occo</w>
Gen au</w>
repeat edly</w>
poo rest</w>
mo bil
voc ational</w>
kan ische</w>
hö her
descri be</w>
lab or</w>
W ord
An hän
therap eu
spee ches</w>
secon dary</w>
Nichtraucher zonen</w>
Klar heit</w>
Garanti en</w>
Durch setzung</w>
Andal u
ün d
ta gs
stä tten</w>
ro ut
residen tial</w>
harmon isi
h o</w>
be gun</w>
Schü ler</w>
For ts
ti les</w>
lo ses</w>
c tive</w>
Lou is</w>
Bet ro
Mich el</w>
verbreit et</w>
al tungen</w>
aff ord
Vic t
UR L</w>
Ein er</w>
Dres den</w>
Argu ment</w>
sozi al
re volution</w>
profession ellen</w>
näch ster</w>
fre ier</w>
flexi b
exp and</w>
coast al</w>
anzu wenden</w>
Re f</w>
si zes</w>
elegan te</w>
Entsch lossenheit</w>
18 0</w>
wh at
Sie d
x i</w>
of- the-
di ving</w>
bei behalten</w>
ad -
Mal ay
Mach t
hinzu gefügt</w>
besonder es</w>
ali t
Pflan zen
verur teilen</w>
transl ated</w>
sch alten</w>
qu ellen</w>
S K</w>
accu racy</w>
L ap
or ation</w>
koh är
ant i</w>
am p</w>
wid men</w>
mo reover</w>
lie b</w>
guarante eing</w>
existi eren</w>
elektron ische</w>
de i</w>
besch ä
Kompet enzen</w>
Universi täten</w>
Sat z</w>
ul timate</w>
gewid met</w>
gemü tliche</w>
ge treten</w>
be ach
In kraft
ung s</w>
op ho
f es
charak ter
Nor d</w>
Be vor</w>
umfas sen</w>
mög lichkeit</w>
cook ies</w>
co o
woh nern</w>
th aus</w>
lo go</w>
comp ete</w>
afri kanischen</w>
Chi c
Souverän ität</w>
Par a
Mit tw
Ferienwoh nungen</w>
1 10</w>
scri p
pap ers</w>
mit glied</w>
for war
e x</w>
dead line</w>
Pa y
toler ance</w>
m elt</w>
ac adem
po sts</w>
altern atives</w>
Wel th
Stell en
Ratsvor sitz
Mo sco
wel le</w>
t dem</w>
Ehr e</w>
accord ingly</w>
Rein igung</w>
K -
re au</w>
er vice</w>
Ein satz
wa i
o ve</w>
integri erte</w>
inform al</w>
gesch äf
bo asts</w>
S icht
Re gen
Philosoph ie</w>
ir on</w>
hal t
Th ree</w>
ima gin
d rit
aus wählen</w>
Exist enz</w>
inten tions</w>
f unded</w>
ei gn</w>
Hä fen</w>
H our</w>
fre sh
fore most</w>
e vol
T E
Sch alt
Her kunfts
proje kt</w>
clar ity</w>
befür worten</w>
Sch wä
Fel der</w>
Erfol ge</w>
se bene</w>
olog ischer</w>
fahr zeuge</w>
Europ a
setz te</w>
kon zipi
b and
Boo t</w>
A y
listen ing</w>
Sti ftung</w>
L ohn
Kon jun
under lying</w>
ter a</w>
pos s
erh eben</w>
Zeit plan</w>
La y
Kür ze</w>
En ts
escap e</w>
Wäh ler</w>
Non- Smoking</w>
Netz e</w>
Di esen</w>
sa al</w>
po ker</w>
fi re
er wiesen</w>
I deal</w>
por te</w>
o x
measu rement</w>
h un
enor men</w>
To gether</w>
Mar ok
Him mel</w>
Fisch ler</w>
zwei ter</w>
st ur
n ische</w>
gri ff
en cryp
af raid</w>
Sol ana</w>
klein ere</w>
ho hes</w>
erk unden</w>
198 8</w>
Haushal ts</w>
F abri
u zzi</w>
kosten losen</w>
klär t</w>
inspec tion</w>
consi sten
bedro ht</w>
Scha den
E del
spiel er</w>
lo y
innov ativen</w>
Ma in
Fest platte</w>
Entwicklungs hilfe</w>
schutz es</w>
post p
i ds</w>
funktion ier
cop e</w>
Vor gehensweise</w>
Ex ternal</w>
3 1.</w>
zw öl
wür digen</w>
purch ased</w>
conc ert</w>
ci ón</w>
br y
Nach druck</w>
stärk sten</w>
sen sib
ha i</w>
200 7-
klär en</w>
des ktop</w>
IM F</w>
Den ken</w>
Be sitz</w>
Aus blick</w>
legitim acy</w>
günsti g</w>
eth ical</w>
ausgestat tete</w>
au tum
Chan cen
Bet racht</w>
op pose</w>
mm a</w>
bo und
Weiter hin</w>
Kop f
I l</w>
B illi
zu geben</w>
rev ised</w>
rank ungen</w>
jurisdi ction</w>
genau er</w>
es en
ati vity</w>
- und</w>
sol ch</w>
ch eck-
Werk zeug</w>
Off ic
Legi tim
L eben
Be kann
fal sche</w>
R eh
H of</w>
d einer</w>
Ziel setzungen</w>
W and
Sy mb
St ri
Schul den</w>
Proble matik</w>
Mi gration</w>
6 ,
pa ths</w>
comm o
Slowak ei</w>
uneingeschrän kt</w>
siden tin</w>
be ef</w>
be cken</w>
20 th</w>
sub sequently</w>
haf ter</w>
O x
G as</w>
ver tritt</w>
terri ble</w>
aus wirken</w>
Premier minister</w>
ten den
reib ungen</w>
lo sing</w>
k und
Schi cks
Gesetz geb
E-Mail- Adresse</w>
verur sachen</w>
quanti t
frü h</w>
Air lines</w>
s ample</w>
gel s</w>
ar ma
B A</w>
ten der</w>
erst es</w>
answer ed</w>
Montene gro</w>
K ä
B and
politi ken</w>
er arbeitet</w>
dol lar</w>
F ang
A .
sp anische</w>
fri end
e de</w>
access ories</w>
Protokol ls</w>
Origin al
He ads</w>
Einzel heiten</w>
ri ert</w>
H IV</w>
spec trum</w>
vertrau t</w>
tra gic</w>
h ence</w>
L IN
sch ü
respe ktieren</w>
Akti en
what soever</w>
vor liegt</w>
form ular</w>
c it
Wahr ung</w>
join tly</w>
compar able</w>
ann ehm
Pro ven
tä tigen</w>
p as</w>
at t</w>
finanzi erung</w>
dela ys</w>
bab y</w>
Leip zig</w>
Klima wand
GU E</w>
24 .</w>
á n
lo se
wi fe</w>
trans action</w>
over -
manag ers</w>
S eries</w>
C lin
An tri
ver la
ol i</w>
occup ation</w>
gi ge</w>
P har
Grupp en
Br and
offizi ell</w>
fun ktionen</w>
erwer ben</w>
öst lichen</w>
opp on
mom ents</w>
größ ter</w>
enjo ying</w>
dra matic</w>
cal endar</w>
Schul z</w>
D amp
unterschie dlicher</w>
unic ation</w>
trage dy</w>
stra tions</w>
pharmac eu
geneh mi
flexi bel</w>
endgül tige</w>
clas sical</w>
adul t</w>
schaf tlich</w>
journ alists</w>
höch st</w>
gegeb enen</w>
Schlu ß
Ru f</w>
öffent licher</w>
unterbro chen</w>
o s
affec ting</w>
wär tige</w>
Re al
Off enheit</w>
Mittelme er</w>
Kenn tnisse</w>
Aus be
ri ere</w>
depen dence</w>
con stra
W -
mut lich</w>
fi a</w>
Über sicht</w>
publi sh</w>
ge fühl</w>
Venedi g</w>
Cop yright</w>
Aus nahmen</w>
modi fy</w>
ful l-
co st-
S L</w>
än der</w>
statt gefunden</w>
remark able</w>
poten ti
k lin
hi elten</w>
forts etzen</w>
doub ts</w>
Lehr er</w>
Eigent ü
transi tional</w>
theat re</w>
tex tile</w>
pol l
pen sions</w>
de cl
c tu
Perform ance</w>
Par lia
Chair man</w>
geb nisse</w>
fin dung</w>
Ur sache</w>
Spi ri
S n
EG -
pre di
gestie gen</w>
gehöri ge</w>
destro y</w>
bevölk erung</w>
Er arbeitung</w>
wei chen</w>
st ently</w>
express ly</w>
exp anded</w>
anzu passen</w>
Mo dus</w>
Lebensmittel sicherheit</w>
Forts etzung</w>
C ann
tour na
no -
gele gene</w>
Bet reiber</w>
kompli ziert</w>
Spazier gang</w>
K le
In flation</w>
Ex port
EI B</w>
überra scht</w>
ger ei
erheb lichen</w>
ali se</w>
aff ord</w>
Ver fahrens</w>
F leisch</w>
Engine ering</w>
manufac tured</w>
ehemali ge</w>
be weisen</w>
Ver län
zu gestimmt</w>
wid th</w>
stres sed</w>
s ein
n esses</w>
W it
W ind</w>
Mar co</w>
iss ance</w>
ig a</w>
cro w
big ger</w>
autum n</w>
assur ance</w>
S ource</w>
S ab
L ot
Fil ter</w>
D C</w>
reib ungs
T V
tsch ech
hunder t</w>
Represent ative</w>
Land wirtschafts
1 30</w>
read s</w>
bu cht</w>
Zuverlässi gkeit</w>
hot el
eill ance</w>
cust om</w>
Aus richtung</w>
A 4-0
splen did</w>
ref used</w>
r y
oblig ator
li erungs
bre ath
zah ler</w>
sac ri
por tra
ig ungen</w>
ger ingen</w>
J ord
up-to- date</w>
ministr ator</w>
erwäh nten</w>
S po
Kre ativ
In genie
Gu te</w>
Ent schä
si x
medi eval</w>
mechan ical</w>
bl ind</w>
berich tet</w>
The men
Kl ing
K m</w>
In halten</w>
d ing
cancell ed</w>
Austra lien</w>
bewe gt</w>
adv ise</w>
Pal ette</w>
vic tory</w>
ständi ger</w>
n es</w>
erforder liche</w>
commer ce</w>
Le ague</w>
stan des</w>
regre t
region aler</w>
pos ure</w>
lo ck
b its</w>
Jose ph</w>
tri bute</w>
M E</w>
Emp fang</w>
Altern ativen</w>
über mitteln</w>
ähn lichen</w>
ven tive</w>
K eine</w>
E lev
stri ke</w>
n ings</w>
Volks wirtschaften</w>
Chancen gleichheit</w>
zu stande</w>
we d
ref use</w>
health care</w>
ge startet</w>
e fully</w>
Ge gner</w>
Autom ati
nö tigen</w>
ge ous</w>
b i</w>
angen ommenen</w>
Sa int-
.. ..
re servi
ide ally</w>
ge sts</w>
be stände</w>
sp annen</w>
hon est</w>
exp enses</w>
a o</w>
Verk aufs
ver mittelt</w>
represent ing</w>
Kno w-how</w>
promot ed</w>
decl are</w>
ber ger</w>
Effe kt</w>
g on
cu rement</w>
arran gement</w>
ap i
S em
L oo
Ar ena</w>
vi able</w>
ru fe</w>
her bei
environ mentally</w>
dat ei</w>
Dro gen</w>
C l
p lo
her ausge
hel l</w>
Emp ire</w>
angebo te</w>
an ten
Sei ten
La den</w>
z ar
vor ge
suspen ded</w>
ein iges</w>
w ehr
verbin dungen</w>
conver t</w>
P M</w>
fall ing</w>
all o</w>
Tamp ere</w>
Tab elle</w>
í n</w>
v i</w>
sun ny</w>
8 4</w>
medi terran
heraus ra
erleich tert</w>
ell i</w>
auslän dischen</w>
S por
S cre
R un
Mas sage</w>
K ein</w>
Düssel dorf</w>
Der zeit</w>
sch ar
lan gem</w>
k it</w>
Su n</w>
stopp ed</w>
i dy
er arbeiten</w>
atem berau
an gle</w>
Caf é</w>
198 6</w>
gu es</w>
erklär te</w>
continu ously</w>
Rech en
M é
C A</w>
sch wan
re ci
gemü tlichen</w>
deser ve</w>
con s</w>
as i</w>
a be
St ur
Prä sident
Im peri
k et</w>
verabschie den</w>
ver wiesen</w>
li vely</w>
at i</w>
termin al</w>
seg ment</w>
fair en</w>
Qu i
P ier
vie wing</w>
mi le</w>
m its</w>
ent stand</w>
bi om
Auf hebung</w>
u e
rec all</w>
geschä ft</w>
Wachst um
z immern</w>
par ameter</w>
da li
berühm te</w>
G o</w>
Er schein
tatsäch lichen</w>
stand ardi
rec ru
gran ting</w>
f at
cat ors</w>
Servi ce
Aus sagen</w>
il le</w>
geschnit ten</w>
a wa
Wün schen</w>
Sch ne
w unden</w>
sug gests</w>
s -</w>
getrenn t</w>
g ur
deut liche</w>
con version</w>
Ver ordnungen</w>
H ör
B ak
un zäh
sec ondly</w>
f lich</w>
be fin
The at
techn ischer</w>
kri terien</w>
import antly</w>
fascin ating</w>
du plic
di an</w>
den -
arbei teten</w>
Mon te</w>
M s</w>
M ir
Got tes</w>
uri ties</w>
W ie
Bürokrati e</w>
3 00
zi pl
es c
character istic</w>
Vo y
Ver sand
Ti ckets</w>
K G</w>
Im mer</w>
Gar ten
Galile o</w>
F ig
sign als</w>
bli cken</w>
Lab our</w>
C aliforni
B I
unterschie d
remo val</w>
quanti ty</w>
kap it
frei ght</w>
ari b
R it
Partner ship</w>
Krieg es</w>
Col om
rela xed</w>
no body</w>
de voted</w>
car te</w>
afford able</w>
T aten</w>
Aus grenzung</w>
ti ps</w>
eindeu tige</w>
ch i</w>
te stens</w>
spor t
orient ation</w>
iPo d</w>
e ters</w>
dru ckt</w>
cei ling</w>
basi cally</w>
Zu stell
Y O
Frau en
Do cu
t ung
simultane ously</w>
clo sing</w>
bedauer lich</w>
Ver fahrens
Trag ö
Lev el</w>
Hei mat</w>
Con tact</w>
telef on
geb illi
ga u</w>
certi fication</w>
bewer tet</w>
Sch ot
Ro ck</w>
For mul
zus agen</w>
pres ti
fif th</w>
Ori enti
Isra eli
än ge</w>
sm art</w>
person en</w>
mechanis men</w>
Äu ßer
präz ise</w>
kö mm
ag o
Mo dern</w>
Je wish</w>
Finn ish</w>
thor ou
terra sse</w>
Ru bri
Al ps</w>
zu gelassen</w>
vor sieht</w>
c rop
Mo sk
Jah re
Gemein den</w>
kap az
geeig neten</w>
excur sions</w>
behaup tet</w>
aff ili
Klas si
H ein
D .</w>
Br ücke</w>
Beschrän kungen</w>
woh nt</w>
rati fied</w>
einger ei
Quar k</w>
ssi er</w>
mm ing
gem essen</w>
for gotten</w>
St rom</w>
m äh
f ungen</w>
absur d</w>
Ver abschie
So w
Rechnung shof</w>
komb iniert</w>
k e-
bene ficial</w>
ab en</w>
Sie mens</w>
Mittw och</w>
Min er
zentr aler</w>
princip al</w>
komple xe</w>
gemein samer</w>
Stei gerung</w>
K au
Bu reau</w>
we l</w>
verm ieden</w>
ti s
men ge</w>
Presiden ts</w>
Ex port</w>
ñ a</w>
gew ach
befürwor tet</w>
Sup er</w>
PPE- DE</w>
Bürger beauftragten</w>
Ab bau</w>
residen ts</w>
post al</w>
G T
so for
sen der</w>
ra tions
Mini bar</w>
Ge sichtsp
spo ts</w>
priv ati
f ell</w>
auth ors</w>
Steu er</w>
S ah
Nor dic</w>
Je an-
veran k
l assung</w>
kt or
f ter</w>
Ver heu
vertrau en</w>
pa in</w>
mit ting</w>
integri ty</w>
hor se</w>
d f
C ô
tr in
toi let</w>
ne x</w>
mechan ismus</w>
Inn er
Auff or
install ations</w>
ar range</w>
Mini stry</w>
lo gic</w>
Werk zeuge</w>
D oh
ver li
ch at</w>
begeg nen</w>
beg ünsti
at ri
Tie f
Ro th
Plätz e</w>
w th</w>
noti fied</w>
ish ment</w>
h an</w>
fu hren</w>
diesel ben</w>
angekün digt</w>
Dynam ik</w>
B A
198 0</w>
trop ical</w>
per pet
ju dge</w>
gewünsch te</w>
ge ehrte</w>
ear ning</w>
N C
K ie
änder ungen</w>
umfangreich en</w>
Sch le
Ira q
subscri be</w>
2 2.</w>
Minder heit</w>
Au dio</w>
sche dule</w>
der -
whe el</w>
r is</w>
min es</w>
Spec i
Re gar
le tte</w>
kön ne</w>
gi ft</w>
em pl
bran ch</w>
an passen</w>
Zwei ten</w>
Verheu gen</w>
Sta hl
Prä sidi
y- to-
under take</w>
qu est</w>
ar ts</w>
Y outh</w>
Verabschie dung</w>
S ports</w>
Klimawand els</w>
An träge</w>
zei gte</w>
ver arbeitet</w>
st ein
der art</w>
b ac
appar ent</w>
Gre en
G on
ver e</w>
ign ore</w>
gi eren</w>
fi x
der selben</w>
bro ader</w>
Abgeordnet er</w>
Ab teilung</w>
zer o</w>
rene wed</w>
rele ases</w>
prepar ations</w>
her e
fi ehlt</w>
as set</w>
Vene zu
medizin ische</w>
lo ans</w>
dimen sions</w>
dest inations</w>
design er</w>
authori zed</w>
Tim es</w>
Privat sphäre</w>
B ig</w>
tig keits
pre served</w>
kur se</w>
hin e</w>
Ru ral</w>
geb ühren</w>
d den
all ed</w>
L ager</w>
For d</w>
E .
t ability</w>
da vor</w>
zw ischen
mar gin
drän gt</w>
Haf en
ster ing</w>
inclu sive</w>
gebäu de</w>
fur b
downlo aded</w>
Li brary</w>
spür en</w>
motor way</w>
li est</w>
geh e</w>
du stri
berühr t</w>
St au
Mac ed
Liber alen</w>
Inte gri
rl pool</w>
and al</w>
Sie g</w>
San ter</w>
ver zer
typ isch</w>
st ür
popul ations</w>
Schn ell
Kommissionsprä sident</w>
Al ters
tra ins</w>
op eri
intelli gen
inn ere</w>
e a</w>
an erkennen</w>
Freih andels
Franc isco</w>
visi ts</w>
u xe</w>
foc using</w>
surv ey</w>
no is
Z wan
Nach mittag</w>
Mosco w</w>
Ha iti</w>
Blo ck
zur zeit</w>
ten sion</w>
niedri gen</w>
geschm ack
fer tigung</w>
credi ble</w>
cat alogue</w>
bu ying</w>
Liefer anten</w>
Fo ot
kur zer</w>
ens hip</w>
S elect</w>
st ops</w>
inn eren</w>
du ration</w>
Sol daten</w>
R ennen</w>
Ju gosla
Fl ori
B av
A l</w>
verz ichten</w>
isti k</w>
Sol ar
Fischerei politik</w>
F C</w>
Er halt</w>
trou ble</w>
leben den</w>
komple xen</w>
deb ated</w>
U P
Lu d
Latein amerika</w>
ob servation</w>
fit ted</w>
S han
Er öffnung</w>
zw eck
viol ent</w>
as y
archi ve</w>
an trags</w>
Flücht ling
Exc ellent</w>
drän gen</w>
L un
H ände</w>
Gro wth</w>
Comm erce</w>
Be k
Kon su
An gabe</w>
el det</w>
cam eras</w>
W eine</w>
wir ft</w>
min i</w>
komfort ablen</w>
audi ence</w>
Funktion ieren</w>
ser ie</w>
posi tion
negoti ated</w>
fel der</w>
eigent liche</w>
kü ste</w>
gi pf
Sch mi
Col le
red und
com posed</w>
chem icals</w>
b ak
Sch wellen
Sam sung</w>
S et
Bau ern</w>
prin zip</w>
pel ine</w>
nation als</w>
beruf lichen</w>
ac o</w>
Kol le
Every thing</w>
Com ple
A ch
supple mentary</w>
evalu ate</w>
al leg
al ar
Jes us</w>
Georgi en</w>
wel s</w>
po sted</w>
hand els
g are
end sten</w>
b onds</w>
au p
Sü dafrika</w>
Aut or</w>
versch affen</w>
prev ented</w>
Palestini ans</w>
P ast
7 9</w>
su res</w>
k new</w>
feat uring</w>
ag nen</w>
Musli m</w>
M ar</w>
Ereig nis</w>
E vent</w>
mittel alter
Bet rach
jähr lichen</w>
indi cators</w>
il en</w>
fant as
er öffnen</w>
elegan ten</w>
so fa</w>
sc ar
sa ke</w>
F ür
C ath
zi erten</w>
metho de</w>
belon gs</w>
Zun ahme</w>
Sou thern</w>
t one</w>
schen ken</w>
re lief</w>
o date</w>
mark tes</w>
f o</w>
diesel be</w>
an ges
24-Stunden- Rezeption</w>
organ ize</w>
integri eren</w>
eman den</w>
Schicks al</w>
Menschenrechts verletzungen</w>
F isch</w>
De posit</w>
telecomm unications</w>
sta b</w>
ge habt</w>
enthusi as
c ommission
atten ded</w>
ab geben</w>
Man age
t .
proble mati
gering er</w>
gegensei tigen</w>
emp fängt</w>
cen ters</w>
Um stände</w>
short- term</w>
pri ze</w>
neighbour hood</w>
mark ing</w>
cre ature</w>
Ara b
23 .</w>
zusammen arbeit</w>
wh enever</w>
ar rest</w>
alisi erungs
a sis</w>
Sü do
A si
um es</w>
trau m
surv eillance</w>
necessi ty</w>
er weisen</w>
ec ks</w>
applic ant</w>
relev anten</w>
m men</w>
lin ing</w>
Zerti fik
Ausbe utung</w>
tari at</w>
da hin</w>
angeneh me</w>
T P</w>
Mein ungen</w>
Begrün dung</w>
prospec t</w>
nor men</w>
Zei tsch
vent ure</w>
tä tsp
ori sten</w>
ma ps</w>
explic itly</w>
ad mit</w>
St an
R assi
Ma x</w>
mand atory</w>
ld n</w>
im ported</w>
fe edback</w>
elec toral</w>
begrün det</w>
T uni
Bur g</w>
wunder schöne</w>
speci fy</w>
das selbe</w>
St rei
I ron
Ber gen</w>
plan ung</w>
in sufficient</w>
formu liert</w>
endgül tigen</w>
certific ate</w>
author ised</w>
Wich tig</w>
198 5</w>
o li
Über nahme</w>
rupp e</w>
moder ner</w>
foc uses</w>
ein stellen</w>
W ett
S anti
wa re
plan e</w>
mis sed</w>
identi fication</w>
G P</w>
sen sor</w>
iz ing</w>
interess anten</w>
de teri
bir d</w>
Zerst örung</w>
ursprün gliche</w>
sicher er</w>
ol e
be stra
P V
Clu bs</w>
year -
w öch
nicht -
höch ster</w>
bureau cracy</w>
Ren a
Install ations
zufrie den
th ei
resear chers</w>
negoti ate</w>
frequ ent</w>
ein führen</w>
br ands</w>
Wettbewer bs</w>
Fremden verkehr</w>
Erzeu gung</w>
for tsch
Ein la
tonn es</w>
tion -
territ ories</w>
neut ral</w>
herr schen</w>
ab gegeben</w>
Hän den</w>
Energiequ ellen</w>
Doh a</w>
Bau m
198 7</w>
tel n</w>
lei chte</w>
er lassen</w>
auf nahme</w>
In c</w>
überwach t</w>
with draw
mittl ere</w>
fin ds</w>
fam il
emplo yers</w>
W ater</w>
Un til</w>
Kapaz ität</w>
g ingen</w>
ausreich ende</w>
Stu fe</w>
Rau ms</w>
Or der</w>
Cor poration</w>
un certainty</w>
ti gh
rel ate</w>
lic a</w>
Sch il
Mensch heit</w>
ver teilung</w>
gra vier
gerech net</w>
distinc tion</w>
un te
tre gi
entsp ann
T ali
S ex
Anrei ze</w>
tran sit</w>
t ten
p ack</w>
Sil ver
wander ung</w>
schön es</w>
hy gi
hol der</w>
green house</w>
en gen</w>
Sch ie
Ruß land</w>
um so</w>
sch ür
prec au
co very</w>
adjust ment</w>
ab ul
G O</w>
ress ourcen</w>
par a
in spiri
e ure</w>
basi eren</w>
Leb an
Ge sicht</w>
Formu lierung</w>
spä teren</w>
medizin ischen</w>
he avi
do g</w>
gu il
gerecht fertigt</w>
Menschen rechten</w>
Besch luß</w>
wün scht</w>
passi eren</w>
j ing</w>
ci ally</w>
Satelli ten
M ischung</w>
Hand lungen</w>
Elev ator</w>
Bro w
ti a</w>
l enst
ig ungs
auf geführt</w>
Elec tron
sch lu
pat ents</w>
hi re</w>
G PS</w>
Funktion alität</w>
Buch stab
te stelle</w>
replac ement</w>
machin ery</w>
ehr lich</w>
re alisiert</w>
per sec
läu fe</w>
durch zusetzen</w>
Bewus stsein</w>
wor rying</w>
taus end</w>
re me
coordin ate</w>
ba g</w>
zz o</w>
zeich nete</w>
pl ätzen</w>
far ms</w>
Zu cker
occ urs</w>
her um</w>
arbei ter</w>
Haf t
Frei zeit
gi ous</w>
er stens</w>
einstimmi g</w>
conven tions</w>
Ver sorgungs
U K
S pre
sch wä
sch rank</w>
proxim ity</w>
progres sive</w>
privileg ed</w>
k te
e ve</w>
dea ths</w>
Terr oristen</w>
IB M</w>
Be zeichnung</w>
in akzeptabel</w>
ger inge</w>
al i</w>
ah e</w>
ab gesehen</w>
Vis a</w>
Ver ts</w>
Kur z</w>
In sel
pp s</w>
m on</w>
S zen
tik er</w>
gest al
fre ih
autom otive</w>
agre es</w>
Wieder herstellung</w>
Hän dler</w>
wi en</w>
wach sende</w>
sonsti ge</w>
ne m</w>
al location</w>
D S</w>
An bindung</w>
. N
is ode</w>
Prof .</w>
Besch werden</w>
Berat ungen</w>
Bau ern
v .</w>
k et
Or dner</w>
le i</w>
ed y</w>
General sekre
Finan zen</w>
ver arbeitung</w>
uni vers
tsp rech
mer k</w>
dri ves</w>
b ahnen</w>
Se ele</w>
Schutz es</w>
Bla ir</w>
genie ßt</w>
cho se</w>
be wegung</w>
Her kunft</w>
Bet t</w>
than king</w>
se y</w>
safe guar
komp on
ange gebenen</w>
Zu rich</w>
Ver sprechen</w>
tim ely</w>
problem los</w>
occu pied</w>
kun de</w>
kosten frei</w>
il es</w>
fail s</w>
Verfol gung</w>
M illion</w>
Ar ts</w>
ökonom ische</w>
z ones</w>
vor gehen</w>
un stable</w>
sp are</w>
re furb
mist akes</w>
Vil lage</w>
Californi a</w>
ve z</w>
emp fiehlt</w>
Volk spartei</w>
Au dio
Ar c
. ch</w>
sichti gen</w>
offici ally</w>
ar dis
Ad ressen</w>
justi fy</w>
eist ungen</w>
consul tan
at -
Inkraft treten</w>
EU RO
österreich ischen</w>
threat ened</w>
fe a
collap se</w>
ab lehnen</w>
Tür en</w>
k len</w>
he ated</w>
gest eu
f assungs
ch ur
T ak
An zeige</w>
gu ards</w>
for tabel</w>
SD L</w>
N RO</w>
unanim ously</w>
la d
inter medi
hör t</w>
gen ous</w>
contro versi
stütz t</w>
religi ösen</w>
preci sion</w>
pl ant
maxim ale</w>
gel ingen</w>
erstre ckt</w>
er ische</w>
angebot enen</w>
achie vements</w>
Verlän gerung</w>
N ation</w>
s es
public ations</w>
li min
gel ernt</w>
fa ire</w>
bo xes</w>
beru hen</w>
Colo gne</w>
slo pes</w>
Jugen dliche</w>
Aufenthal ts
dar gelegt</w>
ar gue</w>
X ML</w>
I A
Fak ten</w>
th es</w>
taxpa yers</w>
log istics</w>
dau ern</w>
Produ ktivität</w>
re turns</w>
auf gestellt</w>
Zusammen setzung</w>
Schnitt stelle</w>
Beam ten</w>
B un
vereinbar ten</w>
com .</w>
civi lian</w>
beschleuni gen</w>
Il lu
pres sed</w>
orienti erte</w>
mit h</w>
lich t
industri ellen</w>
horizon tal</w>
emis sion</w>
Vertri eb</w>
Erwä gung</w>
so genannte</w>
sand y</w>
inter active</w>
der o
Ob viously</w>
Fahr zeug</w>
soldi ers</w>
re publik</w>
quali fications</w>
mo vies</w>
h em
geb au
ar tik
Th y
thi op
indic ates</w>
d ün
comp rises</w>
ab ges
Stra h
Langu age</w>
C lar
typ ically</w>
h är
fl ying</w>
ess ing</w>
ein geräumt</w>
Pro gram</w>
öh ne</w>
vor über
Marok ko</w>
Auf trag
Gu t</w>
Demok raten</w>
24- Hour</w>
klein eren</w>
im per
ge ograf
ac t
[...]
